{
  "version": "1.0",
  "truncation": {
    "direction": "Right",
    "max_length": 512,
    "strategy": "LongestFirst",
    "stride": 0
  },
  "padding": {
    "strategy": "BatchLongest",
    "direction": "Right",
    "pad_to_multiple_of": null,
    "pad_id": 0,
    "pad_type_id": 0,
    "pad_token": "[PAD]"
  },
  "added_tokens": [
    {
      "id": 0,
      "content": "[PAD]",
      "single_word": false,
      "lstrip": false,
      "rstrip": false,
      "normalized": false,
      "special": true
    },
    {
      "id": 1,
      "content": "[UNK]",
      "single_word": false,
      "lstrip": false,
      "rstrip": false,
      "normalized": false,
      "special": true
    },
    {
      "id": 2,
      "content": "[CLS]",
      "single_word": false,
      "lstrip": false,
      "rstrip": false,
      "normalized": false,
      "special": true
    },
    {
      "id": 3,
      "content": "[SEP]",
      "single_word": false,
      "lstrip": false,
      "rstrip": false,
      "normalized": false,
      "special": true
    },
    {
      "id": 4,
      "content": "[MASK]",
      "single_word": false,
      "lstrip": false,
      "rstrip": false,
      "normalized": false,
      "special": true
    },
    {
      "id": 5,
      "content": "<|user|>",
      "single_word": false,
      "lstrip": false,
      "rstrip": false,
      "normalized": false,
      "special": true
    },
    {
      "id": 6,
      "content": "<|ai|>",
      "single_word": false,
      "lstrip": false,
      "rstrip": false,
      "normalized": false,
      "special": true
    },
    {
      "id": 7,
      "content": "<|end|>",
      "single_word": false,
      "lstrip": false,
      "rstrip": false,
      "normalized": false,
      "special": true
    }
  ],
  "normalizer": {
    "type": "Sequence",
    "normalizers": [
      {
        "type": "Strip",
        "strip_left": true,
        "strip_right": true
      },
      {
        "type": "Lowercase"
      }
    ]
  },
  "pre_tokenizer": {
    "type": "Whitespace"
  },
  "post_processor": {
    "type": "TemplateProcessing",
    "single": [
      {
        "SpecialToken": {
          "id": "[CLS]",
          "type_id": 0
        }
      },
      {
        "Sequence": {
          "id": "A",
          "type_id": 0
        }
      },
      {
        "SpecialToken": {
          "id": "[SEP]",
          "type_id": 0
        }
      }
    ],
    "pair": [
      {
        "SpecialToken": {
          "id": "[CLS]",
          "type_id": 0
        }
      },
      {
        "Sequence": {
          "id": "A",
          "type_id": 0
        }
      },
      {
        "SpecialToken": {
          "id": "[SEP]",
          "type_id": 0
        }
      },
      {
        "Sequence": {
          "id": "B",
          "type_id": 0
        }
      },
      {
        "SpecialToken": {
          "id": "[SEP]",
          "type_id": 0
        }
      }
    ],
    "special_tokens": {
      "[CLS]": {
        "id": "[CLS]",
        "ids": [
          2
        ],
        "tokens": [
          "[CLS]"
        ]
      },
      "[SEP]": {
        "id": "[SEP]",
        "ids": [
          3
        ],
        "tokens": [
          "[SEP]"
        ]
      }
    }
  },
  "decoder": null,
  "model": {
    "type": "BPE",
    "dropout": null,
    "unk_token": "[UNK]",
    "continuing_subword_prefix": null,
    "end_of_word_suffix": null,
    "fuse_unk": false,
    "byte_fallback": false,
    "ignore_merges": false,
    "vocab": {
      "[PAD]": 0,
      "[UNK]": 1,
      "[CLS]": 2,
      "[SEP]": 3,
      "[MASK]": 4,
      "<|user|>": 5,
      "<|ai|>": 6,
      "<|end|>": 7,
      "!": 8,
      "\"": 9,
      "#": 10,
      "%": 11,
      "&": 12,
      "'": 13,
      "(": 14,
      ")": 15,
      "*": 16,
      "+": 17,
      ",": 18,
      "-": 19,
      ".": 20,
      "/": 21,
      "0": 22,
      "1": 23,
      "2": 24,
      "3": 25,
      "4": 26,
      "5": 27,
      "6": 28,
      "7": 29,
      "8": 30,
      "9": 31,
      ":": 32,
      ";": 33,
      "<": 34,
      "=": 35,
      ">": 36,
      "?": 37,
      "[": 38,
      "]": 39,
      "^": 40,
      "_": 41,
      "`": 42,
      "a": 43,
      "b": 44,
      "c": 45,
      "d": 46,
      "e": 47,
      "f": 48,
      "g": 49,
      "h": 50,
      "i": 51,
      "j": 52,
      "k": 53,
      "l": 54,
      "m": 55,
      "n": 56,
      "o": 57,
      "p": 58,
      "q": 59,
      "r": 60,
      "s": 61,
      "t": 62,
      "u": 63,
      "v": 64,
      "w": 65,
      "x": 66,
      "y": 67,
      "z": 68,
      "{": 69,
      "|": 70,
      "}": 71,
      "~": 72,
      "°": 73,
      "²": 74,
      "·": 75,
      "×": 76,
      "—": 77,
      "←": 78,
      "→": 79,
      "↓": 80,
      "↘": 81,
      "≈": 82,
      "≤": 83,
      "≥": 84,
      "─": 85,
      "│": 86,
      "└": 87,
      "├": 88,
      "in": 89,
      "re": 90,
      "er": 91,
      "th": 92,
      "on": 93,
      "at": 94,
      "en": 95,
      "st": 96,
      "an": 97,
      "or": 98,
      "**": 99,
      "le": 100,
      "se": 101,
      "ac": 102,
      "al": 103,
      "de": 104,
      "ou": 105,
      "ar": 106,
      "the": 107,
      "it": 108,
      "is": 109,
      "ing": 110,
      "ti": 111,
      "ed": 112,
      "ur": 113,
      "ch": 114,
      "ro": 115,
      "ap": 116,
      "um": 117,
      "to": 118,
      "``": 119,
      "co": 120,
      "mp": 121,
      "ion": 122,
      "li": 123,
      "no": 124,
      "ue": 125,
      "ig": 126,
      "for": 127,
      "ge": 128,
      "ex": 129,
      "id": 130,
      "ent": 131,
      "me": 132,
      "of": 133,
      "and": 134,
      "ke": 135,
      "ve": 136,
      "he": 137,
      "num": 138,
      "int": 139,
      "pro": 140,
      "nt": 141,
      "ic": 142,
      ":**": 143,
      "ad": 144,
      "wi": 145,
      "all": 146,
      "ation": 147,
      "ow": 148,
      "ort": 149,
      "end": 150,
      "po": 151,
      "ver": 152,
      "as": 153,
      "es": 154,
      "il": 155,
      "if": 156,
      "with": 157,
      "us": 158,
      "ach": 159,
      "<|": 160,
      "|>": 161,
      "igh": 162,
      "pre": 163,
      "```": 164,
      "ft": 165,
      "ate": 166,
      "ack": 167,
      "],": 168,
      "wh": 169,
      "te": 170,
      "cou": 171,
      "ma": 172,
      "cur": 173,
      "ord": 174,
      "ight": 175,
      "mple": 176,
      "con": 177,
      "time": 178,
      "que": 179,
      "ay": 180,
      "->": 181,
      "ment": 182,
      "ul": 183,
      "dp": 184,
      "ret": 185,
      "ind": 186,
      "ase": 187,
      "we": 188,
      "res": 189,
      "list": 190,
      "urn": 191,
      "return": 192,
      "ly": 193,
      "ity": 194,
      "tion": 195,
      "lo": 196,
      "left": 197,
      "red": 198,
      "str": 199,
      "len": 200,
      "nums": 201,
      "ce": 202,
      "ace": 203,
      "ab": 204,
      "appro": 205,
      "sh": 206,
      "])": 207,
      "sp": 208,
      "right": 209,
      "ext": 210,
      "def": 211,
      "you": 212,
      "si": 213,
      "char": 214,
      "mo": 215,
      "gr": 216,
      "\",": 217,
      "approach": 218,
      "qu": 219,
      "ne": 220,
      "user": 221,
      "so": 222,
      "am": 223,
      "comple": 224,
      "su": 225,
      "count": 226,
      "tr": 227,
      "bu": 228,
      "app": 229,
      "space": 230,
      "ct": 231,
      "wind": 232,
      "window": 233,
      "py": 234,
      "ail": 235,
      "next": 236,
      "thon": 237,
      "python": 238,
      "sort": 239,
      "min": 240,
      "]`": 241,
      "rent": 242,
      "coin": 243,
      "that": 244,
      "node": 245,
      "word": 246,
      "one": 247,
      "):": 248,
      "cre": 249,
      "per": 250,
      "queue": 251,
      "be": 252,
      "prev": 253,
      "ser": 254,
      "ult": 255,
      "=[": 256,
      "ter": 257,
      "##": 258,
      "order": 259,
      "erat": 260,
      "ange": 261,
      "gre": 262,
      "sta": 263,
      "not": 264,
      "xity": 265,
      "complexity": 266,
      "ant": 267,
      "pl": 268,
      "current": 269,
      "),": 270,
      "get": 271,
      "ans": 272,
      "pop": 273,
      "ele": 274,
      "wer": 275,
      "ri": 276,
      "stack": 277,
      "ai": 278,
      "lu": 279,
      "are": 280,
      "vi": 281,
      "rse": 282,
      "course": 283,
      "key": 284,
      "leve": 285,
      "level": 286,
      "lf": 287,
      "self": 288,
      "up": 289,
      "requ": 290,
      "each": 291,
      "un": 292,
      "element": 293,
      "answer": 294,
      "**:": 295,
      "ck": 296,
      "url": 297,
      "head": 298,
      "cy": 299,
      "any": 300,
      "imp": 301,
      "ket": 302,
      "back": 303,
      "rate": 304,
      "([": 305,
      "use": 306,
      "day": 307,
      "case": 308,
      "append": 309,
      "ger": 310,
      "redis": 311,
      "ction": 312,
      "heap": 313,
      "cal": 314,
      "set": 315,
      "--": 316,
      "fro": 317,
      "from": 318,
      "sub": 319,
      "mit": 320,
      "limit": 321,
      "able": 322,
      "\",\"": 323,
      "ot": 324,
      "tif": 325,
      "temp": 326,
      "][": 327,
      "lear": 328,
      "col": 329,
      "ld": 330,
      "]=": 331,
      "fs": 332,
      "mid": 333,
      "notif": 334,
      "sorted": 335,
      ").": 336,
      "inde": 337,
      "import": 338,
      "el": 339,
      "ive": 340,
      "10": 341,
      "cket": 342,
      "tar": 343,
      "target": 344,
      "mi": 345,
      "by": 346,
      "whi": 347,
      "ally": 348,
      "this": 349,
      "val": 350,
      "out": 351,
      "index": 352,
      "ste": 353,
      "can": 354,
      "tail": 355,
      "point": 356,
      "ount": 357,
      "amount": 358,
      "short": 359,
      "tw": 360,
      "ces": 361,
      "our": 362,
      "edge": 363,
      "art": 364,
      "ven": 365,
      "but": 366,
      "ush": 367,
      "isit": 368,
      "ain": 369,
      "max": 370,
      "che": 371,
      "gth": 372,
      "length": 373,
      "range": 374,
      "ray": 375,
      "array": 376,
      "ire": 377,
      "dis": 378,
      "gree": 379,
      "ure": 380,
      "ication": 381,
      "word1": 382,
      "string": 383,
      "ple": 384,
      "ill": 385,
      "cases": 386,
      "push": 387,
      "lution": 388,
      "now": 389,
      "ber": 390,
      "ency": 391,
      "whe": 392,
      "ust": 393,
      "result": 394,
      "fe": 395,
      "lon": 396,
      "two": 397,
      "30": 398,
      "why": 399,
      "notification": 400,
      "]:": 401,
      "gi": 402,
      "has": 403,
      "none": 404,
      "[]": 405,
      "start": 406,
      "solution": 407,
      "ample": 408,
      "aft": 409,
      "after": 410,
      "curr": 411,
      "grid": 412,
      "ign": 413,
      "track": 414,
      "what": 415,
      "pos": 416,
      "atch": 417,
      "act": 418,
      "ther": 419,
      "ze": 420,
      "war": 421,
      "log": 422,
      "arch": 423,
      "plan": 424,
      "\":": 425,
      "example": 426,
      "stake": 427,
      "mistake": 428,
      "where": 429,
      "ut": 430,
      "lis": 431,
      "gh": 432,
      "op": 433,
      "make": 434,
      "pe": 435,
      "seen": 436,
      "check": 437,
      "hal": 438,
      "word2": 439,
      "temperat": 440,
      "given": 441,
      "size": 442,
      "quest": 443,
      "_id": 444,
      "ana": 445,
      "mar": 446,
      "wr": 447,
      "im": 448,
      "..": 449,
      "read": 450,
      "ding": 451,
      "tails": 452,
      "ty": 453,
      "move": 454,
      "coins": 455,
      "ater": 456,
      "bucket": 457,
      "ka": 458,
      "elements": 459,
      "ical": 460,
      "ha": 461,
      "oup": 462,
      "group": 463,
      "acter": 464,
      "character": 465,
      "`,": 466,
      "half": 467,
      "ir": 468,
      "clear": 469,
      "explan": 470,
      "provi": 471,
      "important": 472,
      "please": 473,
      "explanation": 474,
      "provide": 475,
      "recur": 476,
      "###": 477,
      "ault": 478,
      "default": 479,
      "med": 480,
      "server": 481,
      "ough": 482,
      "ren": 483,
      "gest": 484,
      "visit": 485,
      "ll": 486,
      "ever": 487,
      "was": 488,
      "ded": 489,
      "pri": 490,
      "sign": 491,
      "most": 492,
      "hash": 493,
      "search": 494,
      "height": 495,
      "medi": 496,
      "──": 497,
      "land": 498,
      "row": 499,
      "backtrack": 500,
      "<=": 501,
      "sing": 502,
      "irect": 503,
      "when": 504,
      "table": 505,
      "sum": 506,
      "frequ": 507,
      "base": 508,
      "degree": 509,
      "courses": 510,
      "sc": 511,
      "ata": 512,
      "local": 513,
      "ip": 514,
      "sy": 515,
      "do": 516,
      "eger": 517,
      "integer": 518,
      "chan": 519,
      "ore": 520,
      "la": 521,
      "pointer": 522,
      "dfs": 523,
      "water": 524,
      "ble": 525,
      "counter": 526,
      "top": 527,
      "ite": 528,
      "subset": 529,
      "ould": 530,
      "sion": 531,
      "urls": 532,
      "ful": 533,
      "ache": 534,
      "ist": 535,
      "tic": 536,
      "request": 537,
      "allow": 538,
      "change": 539,
      "decre": 540,
      "ures": 541,
      "only": 542,
      "rever": 543,
      "its": 544,
      "oun": 545,
      "number": 546,
      "ations": 547,
      "?**": 548,
      "sent": 549,
      "sa": 550,
      "bo": 551,
      "sed": 552,
      "cont": 553,
      "wor": 554,
      "[[": 555,
      "req": 556,
      "ine": 557,
      "redirect": 558,
      "[:": 559,
      "have": 560,
      "just": 561,
      "ition": 562,
      "et": 563,
      "add": 564,
      "mig": 565,
      "in_": 566,
      "which": 567,
      "fill": 568,
      "lic": 569,
      "20": 570,
      "temperatures": 571,
      "ice": 572,
      ")**": 573,
      "`.": 574,
      "sm": 575,
      "iterat": 576,
      "iterative": 577,
      "sive": 578,
      "du": 579,
      "produ": 580,
      "feren": 581,
      "cache": 582,
      "longest": 583,
      "ance": 584,
      "\")": 585,
      "migr": 586,
      "ytic": 587,
      "anal": 588,
      "ytics": 589,
      "analytics": 590,
      "post": 591,
      "fail": 592,
      "ken": 593,
      "refill": 594,
      "token": 595,
      "else": 596,
      "stem": 597,
      "system": 598,
      "nel": 599,
      "channel": 600,
      "next_": 601,
      "50": 602,
      "hand": 603,
      "data": 604,
      "then": 605,
      "call": 606,
      "==": 607,
      "recursive": 608,
      "while": 609,
      "low": 610,
      "exp": 611,
      "medium": 612,
      "every": 613,
      "visited": 614,
      "way": 615,
      "need": 616,
      "subsets": 617,
      "type": 618,
      "mon": 619,
      "hour": 620,
      "lengthof": 621,
      "deli": 622,
      "abc": 623,
      "(\"": 624,
      "real": 625,
      "your": 626,
      "greed": 627,
      "ql": 628,
      "in_degree": 629,
      "iter": 630,
      "own": 631,
      "nodes": 632,
      "did": 633,
      "sli": 634,
      "sliding": 635,
      "',": 636,
      "ema": 637,
      "email": 638,
      "proces": 639,
      "warm": 640,
      "ary": 641,
      "api": 642,
      "asing": 643,
      "ctions": 644,
      "serv": 645,
      "()": 646,
      "dif": 647,
      "ated": 648,
      "tra": 649,
      "ues": 650,
      "ree": 651,
      "├──": 652,
      "contain": 653,
      "sible": 654,
      "lat": 655,
      "latency": 656,
      "place": 657,
      "preferen": 658,
      "would": 659,
      "db": 660,
      "ence": 661,
      "without": 662,
      "ink": 663,
      "='": 664,
      "vs": 665,
      "gen": 666,
      "freq": 667,
      "chn": 668,
      "techn": 669,
      "about": 670,
      "complement": 671,
      "how": 672,
      "gram": 673,
      "constr": 674,
      "`[": 675,
      "mana": 676,
      "disa": 677,
      "manager": 678,
      "comp": 679,
      "than": 680,
      "ates": 681,
      "numcourses": 682,
      "_size": 683,
      "some": 684,
      "rough": 685,
      "through": 686,
      "_count": 687,
      "mor": 688,
      "memor": 689,
      "memory": 690,
      "find": 691,
      "ute": 692,
      "learn": 693,
      "bin": 694,
      "patch": 695,
      "dispatch": 696,
      "ong": 697,
      "user_id": 698,
      "fir": 699,
      "first": 700,
      "reverse": 701,
      "both": 702,
      "ward": 703,
      "over": 704,
      "rows": 705,
      "100": 706,
      "incre": 707,
      "examples": 708,
      "nc": 709,
      "intain": 710,
      "maintain": 711,
      "pon": 712,
      "respon": 713,
      "ound": 714,
      "...": 715,
      "enti": 716,
      "ority": 717,
      "ra": 718,
      "island": 719,
      "ous": 720,
      "present": 721,
      "uni": 722,
      "alway": 723,
      "always": 724,
      "opti": 725,
      "tt": 726,
      "max_": 727,
      "long": 728,
      "ative": 729,
      "king": 730,
      "iss": 731,
      "301": 732,
      "302": 733,
      "imum": 734,
      "buckets": 735,
      "istance": 736,
      "technical": 737,
      "actu": 738,
      "anagram": 739,
      "led": 740,
      "ship": 741,
      "com": 742,
      "migration": 743,
      "inter": 744,
      "production": 745,
      "ull": 746,
      "map": 747,
      "cho": 748,
      "dep": 749,
      "other": 750,
      "15": 751,
      "cle": 752,
      "],[": 753,
      "cycle": 754,
      "ices": 755,
      "more": 756,
      "level_size": 757,
      "requests": 758,
      "adj": 759,
      "uplic": 760,
      "alread": 761,
      "already": 762,
      "73": 763,
      "75": 764,
      "76": 765,
      "warmer": 766,
      "response": 767,
      "exact": 768,
      "exactly": 769,
      "priority": 770,
      "dispatcher": 771,
      "sequ": 772,
      "('": 773,
      "high": 774,
      "bfs": 775,
      "conne": 776,
      "service": 777,
      "design": 778,
      "represent": 779,
      "same": 780,
      "timesta": 781,
      "timestamp": 782,
      "ies": 783,
      "ori": 784,
      "alter": 785,
      "my": 786,
      "ard": 787,
      "wid": 788,
      "wall": 789,
      "width": 790,
      "work": 791,
      "pp": 792,
      "supp": 793,
      "support": 794,
      "pa": 795,
      "ag": 796,
      "pref": 797,
      ">=": 798,
      "lar": 799,
      "write": 800,
      "]]": 801,
      "---": 802,
      "dele": 803,
      ")`": 804,
      "show": 805,
      "cli": 806,
      "code": 807,
      "short_": 808,
      "fka": 809,
      "kafka": 810,
      "ately": 811,
      "minimum": 812,
      "substring": 813,
      "sorting": 814,
      "frequent": 815,
      "ster": 816,
      "characters": 817,
      "using": 818,
      "conver": 819,
      "anagrams": 820,
      "ict": 821,
      "oper": 822,
      "reach": 823,
      "gres": 824,
      "null": 825,
      "postgres": 826,
      "postgresql": 827,
      "batch": 828,
      "ass": 829,
      "scri": 830,
      "failure": 831,
      "indices": 832,
      "iteration": 833,
      "had": 834,
      "ific": 835,
      "pai": 836,
      "pair": 837,
      "cap": 838,
      "acity": 839,
      "apsed": 840,
      "key_": 841,
      "elapsed": 842,
      "tokens": 843,
      "capacity": 844,
      "binary": 845,
      "__": 846,
      "om": 847,
      "fore": 848,
      "before": 849,
      "par": 850,
      "mal": 851,
      "ess": 852,
      "72": 853,
      "deque": 854,
      "dail": 855,
      "daily": 856,
      "cond": 857,
      "iet": 858,
      "quiet": 859,
      "notifications": 860,
      "hours": 861,
      "deliver": 862,
      "core": 863,
      "ff": 864,
      "step": 865,
      "run": 866,
      "store": 867,
      "next_node": 868,
      "consum": 869,
      "never": 870,
      "possible": 871,
      "ise": 872,
      "var": 873,
      "create": 874,
      "ix": 875,
      "acti": 876,
      "option": 877,
      "mary": 878,
      "primary": 879,
      "ok": 880,
      "valid": 881,
      "aller": 882,
      "ec": 883,
      "cell": 884,
      "greedy": 885,
      "eded": 886,
      "native": 887,
      "alternative": 888,
      "disagree": 889,
      "ending": 890,
      "colle": 891,
      "unique": 892,
      "[\"": 893,
      "dec": 894,
      "collis": 895,
      "short_code": 896,
      "collision": 897,
      "imple": 898,
      "implement": 899,
      "zed": 900,
      "replace": 901,
      "))": 902,
      "_index": 903,
      "bb": 904,
      "char_index": 905,
      "convert": 906,
      "inser": 907,
      "shows": 908,
      "insert": 909,
      "tup": 910,
      "tuple": 911,
      "ating": 912,
      "they": 913,
      "ns": 914,
      "line": 915,
      "rot": 916,
      "cer": 917,
      "colum": 918,
      "aming": 919,
      "fall": 920,
      "11": 921,
      "wise": 922,
      "otherwise": 923,
      "br": 924,
      "prerequ": 925,
      "isites": 926,
      "prerequisites": 927,
      "root": 928,
      "60": 929,
      "_rate": 930,
      "ton": 931,
      "umber": 932,
      "ratelimit": 933,
      "allows": 934,
      "refill_rate": 935,
      "tonumber": 936,
      "stant": 937,
      "second": 938,
      "duplic": 939,
      "look": 940,
      "may": 941,
      "main": 942,
      "single": 943,
      "tree": 944,
      "init": 945,
      "separ": 946,
      "71": 947,
      "74": 948,
      "temperature": 949,
      "decreasing": 950,
      "ling": 951,
      "web": 952,
      "topic": 953,
      "consumer": 954,
      "//": 955,
      "nap": 956,
      "snap": 957,
      "shot": 958,
      "snapshot": 959,
      "old": 960,
      "last": 961,
      "ait": 962,
      "wait": 963,
      "ware": 964,
      "onic": 965,
      "otonic": 966,
      "monotonic": 967,
      "listnode": 968,
      "prefer": 969,
      "varchar": 970,
      "12": 971,
      "ires": 972,
      "recursion": 973,
      "clu": 974,
      "ros": 975,
      "24": 976,
      "area": 977,
      "shorter": 978,
      "container": 979,
      "sight": 980,
      "vo": 981,
      "insight": 982,
      "process": 983,
      "ferent": 984,
      "different": 985,
      "ale": 986,
      "tz": 987,
      "scale": 988,
      "works": 989,
      "ility": 990,
      "ability": 991,
      "once": 992,
      "lengthoflis": 993,
      "fla": 994,
      "collections": 995,
      "└──": 996,
      "ake": 997,
      "ms": 998,
      "#'": 999,
      "'#'": 1000,
      "nr": 1001,
      "islands": 1002,
      "ca": 1003,
      "_at": 1004,
      "ttl": 1005,
      "extend": 1006,
      "sequence": 1007,
      "ious": 1008,
      "ions": 1009,
      "`:": 1010,
      "version": 1011,
      "learned": 1012,
      "load": 1013,
      "lay": 1014,
      "issues": 1015,
      "lower": 1016,
      "require": 1017,
      "days": 1018,
      "\"],": 1019,
      "needed": 1020,
      "62": 1021,
      "_url": 1022,
      "generat": 1023,
      "long_url": 1024,
      "click": 1025,
      "cture": 1026,
      "found": 1027,
      "longestsubstring": 1028,
      "lengthoflongestsubstring": 1029,
      "buil": 1030,
      "chars": 1031,
      "frequency": 1032,
      "groups": 1033,
      "mind": 1034,
      "delete": 1035,
      "mindistance": 1036,
      "):**": 1037,
      "still": 1038,
      "decis": 1039,
      "vie": 1040,
      "intervie": 1041,
      "bet": 1042,
      "inste": 1043,
      "form": 1044,
      "instead": 1045,
      "sch": 1046,
      "sched": 1047,
      "strings": 1048,
      "preference": 1049,
      "based": 1050,
      "aint": 1051,
      "constraint": 1052,
      "fr": 1053,
      "position": 1054,
      "dict": 1055,
      "osing": 1056,
      "concer": 1057,
      "choosing": 1058,
      "rather": 1059,
      "twosum": 1060,
      "fully": 1061,
      "ging": 1062,
      "staging": 1063,
      "didn": 1064,
      "column": 1065,
      "stre": 1066,
      "wrong": 1067,
      "disagreement": 1068,
      "there": 1069,
      "enough": 1070,
      "true": 1071,
      "cl": 1072,
      "must": 1073,
      "decrement": 1074,
      "next_course": 1075,
      "bur": 1076,
      "apis": 1077,
      "lua": 1078,
      "limiter": 1079,
      "key_current": 1080,
      "burst": 1081,
      "prevent": 1082,
      "45": 1083,
      "sal": 1084,
      "man": 1085,
      "ron": 1086,
      "perman": 1087,
      "permanent": 1088,
      "]])": 1089,
      "adjac": 1090,
      "limiting": 1091,
      "signific": 1092,
      "significant": 1093,
      "69": 1094,
      "know": 1095,
      "ness": 1096,
      "mistakes": 1097,
      "someone": 1098,
      "ries": 1099,
      "hard": 1100,
      "mul": 1101,
      "pr": 1102,
      "tiple": 1103,
      "traff": 1104,
      "multiple": 1105,
      "traffic": 1106,
      "_type": 1107,
      "sec": 1108,
      "consi": 1109,
      "socket": 1110,
      "keting": 1111,
      "notif_type": 1112,
      "marketing": 1113,
      "sms": 1114,
      "preferences": 1115,
      "connections": 1116,
      "websocket": 1117,
      "]]`": 1118,
      "uses": 1119,
      "values": 1120,
      "erate": 1121,
      "os": 1122,
      "123": 1123,
      "asy": 1124,
      "gori": 1125,
      "algori": 1126,
      "algorith": 1127,
      "link": 1128,
      "list_": 1129,
      "reverselist_": 1130,
      "flo": 1131,
      "stand": 1132,
      "lists": 1133,
      "handling": 1134,
      "separate": 1135,
      "+=": 1136,
      "immedi": 1137,
      "preferred": 1138,
      "age": 1139,
      "wal": 1140,
      "walk": 1141,
      "taller": 1142,
      "inward": 1143,
      "max_water": 1144,
      "take": 1145,
      "ses": 1146,
      "accur": 1147,
      "hold": 1148,
      "holds": 1149,
      "should": 1150,
      "tal": 1151,
      "big": 1152,
      "bise": 1153,
      "subsequence": 1154,
      "tracking": 1155,
      "timestamptz": 1156,
      "24h": 1157,
      "bigint": 1158,
      "bisect": 1159,
      "emp": 1160,
      "empty": 1161,
      "cols": 1162,
      "down": 1163,
      "ati": 1164,
      "increasing": 1165,
      "]]:": 1166,
      "les": 1167,
      "[[],": 1168,
      ")]": 1169,
      "scal": 1170,
      "coinchange": 1171,
      "iry": 1172,
      "expiry": 1173,
      "path": 1174,
      "].": 1175,
      "arg": 1176,
      "minute": 1177,
      "into": 1178,
      "ep": 1179,
      "keep": 1180,
      "ev": 1181,
      "actual": 1182,
      "writ": 1183,
      "snow": 1184,
      "ids": 1185,
      "flake": 1186,
      "snowflake": 1187,
      "ped": 1188,
      "je": 1189,
      "go": 1190,
      "new": 1191,
      "makes": 1192,
      "max_len": 1193,
      "au": 1194,
      "kfrequent": 1195,
      "exec": 1196,
      "ments": 1197,
      "heapq": 1198,
      "topkfrequent": 1199,
      "requirements": 1200,
      "previous": 1201,
      "ick": 1202,
      "ged": 1203,
      "vag": 1204,
      "strong": 1205,
      "optimi": 1206,
      "operations": 1207,
      "vague": 1208,
      "\"]]": 1209,
      "[[\"": 1210,
      "exist": 1211,
      "constru": 1212,
      "inf": 1213,
      "groupanagrams": 1214,
      "son": 1215,
      "actually": 1216,
      "align": 1217,
      "aster": 1218,
      "faster": 1219,
      "ving": 1220,
      "?\"": 1221,
      "cum": 1222,
      "concre": 1223,
      "were": 1224,
      "concrete": 1225,
      "want": 1226,
      "see": 1227,
      "aris": 1228,
      "meet": 1229,
      "comparis": 1230,
      "concerns": 1231,
      "streaming": 1232,
      "comparison": 1233,
      "rotated": 1234,
      "pass": 1235,
      "47": 1236,
      "care": 1237,
      "happ": 1238,
      "sche": 1239,
      "ened": 1240,
      "sted": 1241,
      "descri": 1242,
      "tested": 1243,
      "loy": 1244,
      "minut": 1245,
      "learning": 1246,
      "deploy": 1247,
      "careful": 1248,
      "happened": 1249,
      "schema": 1250,
      "minutes": 1251,
      "within": 1252,
      "inc": 1253,
      "added": 1254,
      "ear": 1255,
      "ored": 1256,
      "stored": 1257,
      "]`:": 1258,
      "ide": 1259,
      "cause": 1260,
      "changes": 1261,
      ".,": 1262,
      "dat": 1263,
      "lock": 1264,
      "implementation": 1265,
      "bound": 1266,
      "rect": 1267,
      "orrect": 1268,
      "vered": 1269,
      "500": 1270,
      "→[": 1271,
      "topo": 1272,
      "prereq": 1273,
      "edges": 1274,
      "logical": 1275,
      "findorder": 1276,
      "adjacency": 1277,
      "topological": 1278,
      "processing": 1279,
      "dren": 1280,
      "chil": 1281,
      "versal": 1282,
      "traversal": 1283,
      "children": 1284,
      "adding": 1285,
      "ross": 1286,
      "160": 1287,
      "945": 1288,
      "_window": 1289,
      "_refill": 1290,
      "di": 1291,
      "ibut": 1292,
      "pt": 1293,
      "atom": 1294,
      "stribut": 1295,
      "script": 1296,
      "last_refill": 1297,
      "argv": 1298,
      "160945": 1299,
      "distribut": 1300,
      "atomic": 1301,
      "1609459": 1302,
      "distributed": 1303,
      "²)": 1304,
      "=[]": 1305,
      "sur": 1306,
      "enum": 1307,
      "enumerate": 1308,
      "cand": 1309,
      "optimal": 1310,
      "candid": 1311,
      "__init": 1312,
      "class": 1313,
      "__init__": 1314,
      "duplicate": 1315,
      "-=": 1316,
      "ers": 1317,
      "requires": 1318,
      "boun": 1319,
      "ry": 1320,
      "retry": 1321,
      "large": 1322,
      "°):": 1323,
      "today": 1324,
      "prev_id": 1325,
      "popleft": 1326,
      "prev_idx": 1327,
      "depth": 1328,
      "increment": 1329,
      "eno": 1330,
      "iterate": 1331,
      "ject": 1332,
      "nor": 1333,
      "delay": 1334,
      "users": 1335,
      "50m": 1336,
      "dispatchers": 1337,
      "delivery": 1338,
      "normal": 1339,
      "dete": 1340,
      "ak": 1341,
      "ensu": 1342,
      "small": 1343,
      "ensures": 1344,
      "42": 1345,
      "od": 1346,
      "remain": 1347,
      "cluster": 1348,
      "remaining": 1349,
      "1000": 1350,
      "fails": 1351,
      "reversed": 1352,
      "reverselist_recursive": 1353,
      "full": 1354,
      "simple": 1355,
      "archite": 1356,
      "allowed": 1357,
      "architecture": 1358,
      "dered": 1359,
      "til": 1360,
      "until": 1361,
      "repe": 1362,
      "pointers": 1363,
      "fut": 1364,
      "gu": 1365,
      "match": 1366,
      "ante": 1367,
      "arante": 1368,
      "algorithm": 1369,
      "future": 1370,
      "guarante": 1371,
      "keys": 1372,
      ");": 1373,
      "sql": 1374,
      "decrease": 1375,
      "float": 1376,
      "aware": 1377,
      "team": 1378,
      "beha": 1379,
      "vior": 1380,
      "signal": 1381,
      "changed": 1382,
      "awareness": 1383,
      "behavior": 1384,
      "[[]": 1385,
      "constant": 1386,
      "representing": 1387,
      "practi": 1388,
      "represents": 1389,
      "pati": 1390,
      "101": 1391,
      "patience": 1392,
      "hori": 1393,
      "zon": 1394,
      "horizon": 1395,
      "':": 1396,
      "99": 1397,
      "),(": 1398,
      "tempor": 1399,
      "marking": 1400,
      "bot": 1401,
      "`[[],": 1402,
      "v1": 1403,
      "invalid": 1404,
      "trans": 1405,
      "25": 1406,
      "tell": 1407,
      "der": 1408,
      "ized": 1409,
      "under": 1410,
      "like": 1411,
      "\":**": 1412,
      "bit": 1413,
      "won": 1414,
      "immediately": 1415,
      "dy": 1416,
      "put": 1417,
      "hits": 1418,
      "htt": 1419,
      "ask": 1420,
      "shorten": 1421,
      "base62": 1422,
      "generator": 1423,
      "scaling": 1424,
      "http": 1425,
      "stru": 1426,
      "entire": 1427,
      "prec": 1428,
      "distance": 1429,
      "optimized": 1430,
      "mes": 1431,
      "shipped": 1432,
      "\"\"": 1433,
      "three": 1434,
      "uted": 1435,
      "interview": 1436,
      "eat": 1437,
      "might": 1438,
      "tea": 1439,
      "strs": 1440,
      "defaultdict": 1441,
      "inal": 1442,
      "orig": 1443,
      "original": 1444,
      "ually": 1445,
      "usually": 1446,
      "mat": 1447,
      "better": 1448,
      "toge": 1449,
      "together": 1450,
      "decision": 1451,
      "constraints": 1452,
      "fes": 1453,
      "gine": 1454,
      "sit": 1455,
      "uation": 1456,
      "think": 1457,
      "engine": 1458,
      "profes": 1459,
      "sure": 1460,
      "person": 1461,
      "operation": 1462,
      "situation": 1463,
      "engineer": 1464,
      "profession": 1465,
      "personal": 1466,
      "schedu": 1467,
      "action": 1468,
      "try": 1469,
      "pip": 1470,
      "eline": 1471,
      "pipeline": 1472,
      ".\"": 1473,
      "timeline": 1474,
      "docum": 1475,
      "disagreed": 1476,
      "document": 1477,
      "deter": 1478,
      "mine": 1479,
      "falls": 1480,
      "determine": 1481,
      "value": 1482,
      "bing": 1483,
      "bla": 1484,
      "date": 1485,
      "tad": 1486,
      "instant": 1487,
      "envi": 1488,
      "account": 1489,
      "demon": 1490,
      "noon": 1491,
      "iday": 1492,
      "metad": 1493,
      "consequ": 1494,
      "update": 1495,
      "afternoon": 1496,
      "migrations": 1497,
      "systemic": 1498,
      "friday": 1499,
      "ronment": 1500,
      "describing": 1501,
      "blame": 1502,
      "environment": 1503,
      "accountability": 1504,
      "demonstr": 1505,
      "metadata": 1506,
      "aries": 1507,
      "boundaries": 1508,
      "unreach": 1509,
      "unreachable": 1510,
      "integers": 1511,
      "handles": 1512,
      "built": 1513,
      "candidates": 1514,
      "40": 1515,
      "ptable": 1516,
      "yes": 1517,
      "stan": 1518,
      "acce": 1519,
      "proble": 1520,
      "could": 1521,
      "concurrent": 1522,
      "standard": 1523,
      "stances": 1524,
      "acceptable": 1525,
      "problem": 1526,
      "easy": 1527,
      "spec": 1528,
      "specific": 1529,
      "hr": 1530,
      "lum": 1531,
      "mill": 1532,
      "secur": 1533,
      "force": 1534,
      "vive": 1535,
      "checks": 1536,
      "domain": 1537,
      "ential": 1538,
      "brute": 1539,
      "volum": 1540,
      "survive": 1541,
      "security": 1542,
      "volume": 1543,
      "modif": 1544,
      "itself": 1545,
      "lier": 1546,
      "asi": 1547,
      "lose": 1548,
      "earlier": 1549,
      "input": 1550,
      "entries": 1551,
      "stay": 1552,
      "assum": 1553,
      "assume": 1554,
      "avo": 1555,
      "bor": 1556,
      "hn": 1557,
      "degre": 1558,
      "ighbor": 1559,
      "neighbor": 1560,
      "ters": 1561,
      "ordering": 1562,
      "kahn": 1563,
      "avoid": 1564,
      "degrees": 1565,
      "neighbors": 1566,
      "tre": 1567,
      "levelorder": 1568,
      "enode": 1569,
      "treenode": 1570,
      "asc": 1571,
      "duplicates": 1572,
      "_start": 1573,
      "ast": 1574,
      "dle": 1575,
      "fix": 1576,
      "xim": 1577,
      "ined": 1578,
      "reject": 1579,
      "least": 1580,
      "across": 1581,
      "degr": 1582,
      "adation": 1583,
      "made": 1584,
      "aceful": 1585,
      "approxim": 1586,
      "graceful": 1587,
      "user123": 1588,
      "susta": 1589,
      "window_start": 1590,
      "best": 1591,
      "prev_count": 1592,
      "current_count": 1593,
      "current_window": 1594,
      "middle": 1595,
      "sync": 1596,
      "counters": 1597,
      "key_prev": 1598,
      "bursts": 1599,
      "consist": 1600,
      "scripts": 1601,
      "precise": 1602,
      "fixed": 1603,
      "degradation": 1604,
      "sustained": 1605,
      "middleware": 1606,
      "{}": 1607,
      "twice": 1608,
      "cust": 1609,
      "due": 1610,
      "ph": 1611,
      "pu": 1612,
      "ted": 1613,
      "ticket": 1614,
      "popul": 1615,
      "again": 1616,
      "deleted": 1617,
      "writes": 1618,
      "custom": 1619,
      "pub": 1620,
      "fc": 1621,
      "ror": 1622,
      "error": 1623,
      "limits": 1624,
      "boo": 1625,
      "fallback": 1626,
      "ared": 1627,
      "initi": 1628,
      "ris": 1629,
      "used": 1630,
      "points": 1631,
      "dailytemperatures": 1632,
      "risk": 1633,
      "stor": 1634,
      "applic": 1635,
      "world": 1636,
      "guarantees": 1637,
      "00": 1638,
      "6k": 1639,
      "_hours": 1640,
      "_shipped": 1641,
      "aver": 1642,
      "fai": 1643,
      "ios": 1644,
      "send": 1645,
      "score": 1646,
      "ued": 1647,
      "zadd": 1648,
      "ert": 1649,
      "alert": 1650,
      "roid": 1651,
      "ents": 1652,
      "off": 1653,
      "android": 1654,
      "poll": 1655,
      "queued": 1656,
      "order_shipped": 1657,
      "backoff": 1658,
      "notification_": 1659,
      "peak": 1660,
      "deduplic": 1661,
      "sage": 1662,
      "channels": 1663,
      "50k": 1664,
      "delivered": 1665,
      "quiet_hours": 1666,
      "schedul": 1667,
      "500m": 1668,
      "bounce": 1669,
      "message": 1670,
      "average": 1671,
      "failed": 1672,
      "sendgrid": 1673,
      "deduplication": 1674,
      "visiting": 1675,
      "referen": 1676,
      "reference": 1677,
      "stu": 1678,
      "_head": 1679,
      "vance": 1680,
      "forward": 1681,
      "advance": 1682,
      "suff": 1683,
      "impos": 1684,
      "save": 1685,
      "choice": 1686,
      "linked": 1687,
      "new_head": 1688,
      "suffix": 1689,
      "impossible": 1690,
      "correct": 1691,
      "stop": 1692,
      "(~": 1693,
      "tally": 1694,
      "adds": 1695,
      "gener": 1696,
      "detection": 1697,
      "horizontally": 1698,
      "hy": 1699,
      "counts": 1700,
      "brid": 1701,
      "good": 1702,
      "hybrid": 1703,
      "49": 1704,
      "ii": 1705,
      "moving": 1706,
      "maxarea": 1707,
      "considered": 1708,
      "decreases": 1709,
      "remove": 1710,
      "contains": 1711,
      "exists": 1712,
      "tenti": 1713,
      "potenti": 1714,
      "strict": 1715,
      "potentially": 1716,
      "strictly": 1717,
      "_left": 1718,
      "direct": 1719,
      "hot": 1720,
      "part": 1721,
      "text": 1722,
      "repl": 1723,
      "eric": 1724,
      "stat": 1725,
      "lest": 1726,
      "aces": 1727,
      "allest": 1728,
      "smallest": 1729,
      "active": 1730,
      "optional": 1731,
      "extends": 1732,
      "decisions": 1733,
      "bisect_left": 1734,
      "directly": 1735,
      "partition": 1736,
      "replaces": 1737,
      "dc": 1738,
      "dr": 1739,
      "total": 1740,
      "numislands": 1741,
      "unvisited": 1742,
      "mark": 1743,
      "connect": 1744,
      "cells": 1745,
      "give": 1746,
      "pick": 1747,
      "]`,": 1748,
      "gives": 1749,
      "!=": 1750,
      "[])": 1751,
      "sin": 1752,
      "starting": 1753,
      "backtracking": 1754,
      "[:]`": 1755,
      "clude": 1756,
      "since": 1757,
      "mone": 1758,
      "tom": 1759,
      "construction": 1760,
      "bottom": 1761,
      "money": 1762,
      "tical": 1763,
      "times": 1764,
      "apping": 1765,
      "ween": 1766,
      "smaller": 1767,
      "between": 1768,
      "keeps": 1769,
      "many": 1770,
      "combin": 1771,
      "dyn": 1772,
      "returns": 1773,
      "however": 1774,
      "largest": 1775,
      "/{": 1776,
      "://": 1777,
      "av": 1778,
      "bal": 1779,
      "brow": 1780,
      "glo": 1781,
      "ired": 1782,
      "nch": 1783,
      "er_id": 1784,
      "]`.": 1785,
      "created": 1786,
      "redirects": 1787,
      "expires": 1788,
      "100m": 1789,
      "...\",": 1790,
      "ously": 1791,
      "client": 1792,
      "generated": 1793,
      "ronously": 1794,
      "accurate": 1795,
      "temporary": 1796,
      "invalidation": 1797,
      "shortening": 1798,
      "https": 1799,
      "browser": 1800,
      "nchronously": 1801,
      "created_at": 1802,
      "inition": 1803,
      "state": 1804,
      "definition": 1805,
      "plus": 1806,
      "transition": 1807,
      "shr": 1808,
      "disc": 1809,
      "mut": 1810,
      "wke": 1811,
      "abcabc": 1812,
      "repeating": 1813,
      "mutable": 1814,
      "abcabcbb": 1815,
      "dn": 1816,
      "cover": 1817,
      "handled": 1818,
      "needs": 1819,
      "():": 1820,
      "<<": 1821,
      "cies": 1822,
      "encies": 1823,
      "frequencies": 1824,
      "items": 1825,
      ".'": 1826,
      "eth": 1827,
      "est": 1828,
      "eval": 1829,
      "hor": 1830,
      "later": 1831,
      "uating": 1832,
      "ership": 1833,
      "also": 1834,
      "edit": 1835,
      "role": 1836,
      "pres": 1837,
      "quar": 1838,
      "wers": 1839,
      "whether": 1840,
      "question": 1841,
      "questions": 1842,
      "diff": 1843,
      "issue": 1844,
      "prefix": 1845,
      "interviewers": 1846,
      "understand": 1847,
      "engineering": 1848,
      "professional": 1849,
      "ethical": 1850,
      "evaluating": 1851,
      "horse": 1852,
      "26": 1853,
      "practice": 1854,
      "\"])": 1855,
      "bat": 1856,
      "nat": 1857,
      "tan": 1858,
      "onical": 1859,
      "([\"": 1860,
      "canonical": 1861,
      "come": 1862,
      "coming": 1863,
      "don": 1864,
      "complete": 1865,
      "alized": 1866,
      "ily": 1867,
      "executed": 1868,
      "here": 1869,
      "who": 1870,
      "dead": 1871,
      "urable": 1872,
      "conf": 1873,
      "layer": 1874,
      "lve": 1875,
      "mis": 1876,
      "structure": 1877,
      "ten": 1878,
      "ob": 1879,
      "existing": 1880,
      "been": 1881,
      "bally": 1882,
      "offs": 1883,
      "trade": 1884,
      "format": 1885,
      "fact": 1886,
      "approache": 1887,
      "common": 1888,
      "approaches": 1889,
      "alignment": 1890,
      "cti": 1891,
      "fo": 1892,
      "though": 1893,
      "ising": 1894,
      "totype": 1895,
      "vely": 1896,
      "proving": 1897,
      "prototype": 1898,
      "escal": 1899,
      "reso": 1900,
      "respe": 1901,
      "side": 1902,
      "amed": 1903,
      "berately": 1904,
      "llow": 1905,
      "product": 1906,
      "deliberately": 1907,
      "raising": 1908,
      "interpersonal": 1909,
      "building": 1910,
      "framed": 1911,
      "wanted": 1912,
      "seeing": 1913,
      "meeting": 1914,
      "scheduled": 1915,
      "ctively": 1916,
      "follow": 1917,
      "respect": 1918,
      "(`": 1919,
      ".)": 1920,
      "`(": 1921,
      "`<=": 1922,
      "iv": 1923,
      "ied": 1924,
      "piv": 1925,
      "these": 1926,
      "ves": 1927,
      "loit": 1928,
      "])`": 1929,
      "]`:**": 1930,
      "]`):": 1931,
      "unsorted": 1932,
      "logic": 1933,
      "halves": 1934,
      "exploit": 1935,
      "decide": 1936,
      "rotation": 1937,
      "rotations": 1938,
      "incorrect": 1939,
      "modified": 1940,
      "ascending": 1941,
      "`<=`": 1942,
      "pivot": 1943,
      "incorrectly": 1944,
      "`?\"": 1945,
      "ahead": 1946,
      "inue": 1947,
      "numbers": 1948,
      "continue": 1949,
      "compute": 1950,
      "pairs": 1951,
      "separately": 1952,
      "storing": 1953,
      "+,": 1954,
      "_o": 1955,
      "aw": 1956,
      "bl": 1957,
      "breach": 1958,
      "cir": 1959,
      "cata": 1960,
      "close": 1961,
      "em": 1962,
      "fil": 1963,
      "got": 1964,
      "ggest": 1965,
      "g_o": 1966,
      "har": 1967,
      "hur": 1968,
      "hid": 1969,
      "ize": 1970,
      "ibr": 1971,
      "kward": 1972,
      "lation": 1973,
      "mort": 1974,
      "oling": 1975,
      "por": 1976,
      "pir": 1977,
      "pg_o": 1978,
      "ran": 1979,
      "sample": 1980,
      "tin": 1981,
      "wro": 1982,
      "year": 1983,
      "inconsequ": 1984,
      "reco": 1985,
      "rewrite": 1986,
      "rewrites": 1987,
      "relation": 1988,
      "thing": 1989,
      "ongest": 1990,
      "online": 1991,
      "entif": 1992,
      "ences": 1993,
      "stro": 1994,
      "lection": 1995,
      "sever": 1996,
      "seeded": 1997,
      "alt": 1998,
      "ality": 1999,
      "detail": 2000,
      "dealt": 2001,
      "urally": 2002,
      "roll": 2003,
      "tooling": 2004,
      "lies": 2005,
      "excl": 2006,
      "ident": 2007,
      "identif": 2008,
      "held": 2009,
      "propor": 2010,
      "asking": 2011,
      "aspir": 2012,
      "esn": 2013,
      "usive": 2014,
      "making": 2015,
      "aset": 2016,
      "tionality": 2017,
      "strongest": 2018,
      "ceo": 2019,
      "abase": 2020,
      "appropri": 2021,
      "shared": 2022,
      "deflection": 2023,
      "suggest": 2024,
      "applies": 2025,
      "cturally": 2026,
      "serious": 2027,
      "answers": 2028,
      "anywhere": 2029,
      "calibr": 2030,
      "veness": 2031,
      "checking": 2032,
      "checklist": 2033,
      "checklists": 2034,
      "imated": 2035,
      "doesn": 2036,
      "licly": 2037,
      "systems": 2038,
      "hands": 2039,
      "realize": 2040,
      "owned": 2041,
      "ownership": 2042,
      "something": 2043,
      "overly": 2044,
      "ledge": 2045,
      "others": 2046,
      "representative": 2047,
      "myself": 2048,
      "page": 2049,
      "ago": 2050,
      "batched": 2051,
      "hadn": 2052,
      "options": 2053,
      "columns": 2054,
      "older": 2055,
      "differently": 2056,
      "flag": 2057,
      "versions": 2058,
      "concern": 2059,
      "permanently": 2060,
      "knowing": 2061,
      "knowledge": 2062,
      "harder": 2063,
      "immediate": 2064,
      "accurately": 2065,
      "evasi": 2066,
      "cumstances": 2067,
      "describe": 2068,
      "deploying": 2069,
      "deployed": 2070,
      "deployment": 2071,
      "incident": 2072,
      "caused": 2073,
      "dataset": 2074,
      "database": 2075,
      "repeat": 2076,
      "practices": 2077,
      "structurally": 2078,
      "consequences": 2079,
      "demonstrate": 2080,
      "demonstrates": 2081,
      "concurrently": 2082,
      "standardized": 2083,
      "million": 2084,
      "stayed": 2085,
      "phic": 2086,
      "tickets": 2087,
      "populate": 2088,
      "customers": 2089,
      "publicly": 2090,
      "application": 2091,
      "stuck": 2092,
      "estimated": 2093,
      "pressure": 2094,
      "quarters": 2095,
      "understanding": 2096,
      "awkward": 2097,
      "blaming": 2098,
      "circumstances": 2099,
      "catastro": 2100,
      "filing": 2101,
      "harm": 2102,
      "hurt": 2103,
      "hiding": 2104,
      "mortem": 2105,
      "pg_osc": 2106,
      "sampled": 2107,
      "tiny": 2108,
      "wrote": 2109,
      "years": 2110,
      "inconsequential": 2111,
      "recovered": 2112,
      "relationship": 2113,
      "severity": 2114,
      "rollback": 2115,
      "exclusive": 2116,
      "identify": 2117,
      "proportionality": 2118,
      "aspiration": 2119,
      "appropriate": 2120,
      "suggests": 2121,
      "calibration": 2122,
      "evasiveness": 2123,
      "awkwardness": 2124,
      "catastrophic": 2125,
      "]:**": 2126,
      "fin": 2127,
      "lab": 2128,
      "incoming": 2129,
      "aning": 2130,
      "desc": 2131,
      "ish": 2132,
      "meaning": 2133,
      "will": 2134,
      "endant": 2135,
      "become": 2136,
      "eled": 2137,
      "outgo": 2138,
      "processed": 2139,
      "depend": 2140,
      "cycles": 2141,
      "implementations": 2142,
      "build": 2143,
      "prevented": 2144,
      "idea": 2145,
      "prereqs": 2146,
      "detect": 2147,
      "tells": 2148,
      "schedule": 2149,
      "generally": 2150,
      "finish": 2151,
      "labeled": 2152,
      "descendant": 2153,
      "outgoing": 2154,
      "descendants": 2155,
      "bread": 2156,
      "cross": 2157,
      "trick": 2158,
      "gets": 2159,
      "grouping": 2160,
      "initial": 2161,
      "breadth": 2162,
      "(<": 2163,
      "140": 2164,
      "260": 2165,
      "58": 2166,
      "5ms": 2167,
      "658": 2168,
      "_request": 2169,
      "_in_": 2170,
      "bri": 2171,
      "cent": 2172,
      "dan": 2173,
      "dur": 2174,
      "ef": 2175,
      "fal": 2176,
      "fri": 2177,
      "gate": 2178,
      "iod": 2179,
      "men": 2180,
      "oth": 2181,
      "pend": 2182,
      "rfc": 2183,
      "ralized": 2184,
      "smo": 2185,
      "inst": 2186,
      "inel": 2187,
      "instances": 2188,
      "reset": 2189,
      "recom": 2190,
      "enfor": 2191,
      "arily": 2192,
      "rol": 2193,
      "ently": 2194,
      "endly": 2195,
      "ategi": 2196,
      "math": 2197,
      "strategi": 2198,
      "counting": 2199,
      "windows": 2200,
      "window_size": 2201,
      "period": 2202,
      "prev_window": 2203,
      "unboun": 2204,
      "headers": 2205,
      "gerous": 2206,
      "independ": 2207,
      "servers": 2208,
      "allow_request": 2209,
      "sentinel": 2210,
      "control": 2211,
      "200": 2212,
      "refills": 2213,
      "tokenbucket": 2214,
      "expire": 2215,
      "overhead": 2216,
      "overage": 2217,
      "elapsed_in_": 2218,
      "seconds": 2219,
      "preferable": 2220,
      "247": 2221,
      "bursting": 2222,
      "algorithms": 2223,
      "floor": 2224,
      "talking": 2225,
      "execute": 2226,
      "incr": 2227,
      "atomically": 2228,
      "1609459140": 2229,
      "1609459260": 2230,
      "1609459200": 2231,
      "429": 2232,
      "temporarily": 2233,
      "rejecting": 2234,
      "rejected": 2235,
      "approximation": 2236,
      "approximates": 2237,
      "current_window_count": 2238,
      "consistent": 2239,
      "consistency": 2240,
      "bool": 2241,
      "6585": 2242,
      "brief": 2243,
      "centralized": 2244,
      "dangerous": 2245,
      "during": 2246,
      "false": 2247,
      "friendly": 2248,
      "gateway": 2249,
      "mended": 2250,
      "othly": 2251,
      "smoothly": 2252,
      "instance": 2253,
      "recommended": 2254,
      "enforces": 2255,
      "strategies": 2256,
      "periodic": 2257,
      "prev_window_count": 2258,
      "unbounded": 2259,
      "independently": 2260,
      "elapsed_in_current_window": 2261,
      "\"?**": 2262,
      "[-": 2263,
      "`-": 2264,
      "yet": 2265,
      "tial": 2266,
      "such": 2267,
      "popped": 2268,
      "pushed": 2269,
      "haven": 2270,
      "maintains": 2271,
      "partial": 2272,
      "waiting": 2273,
      "whose": 2274,
      "\"]": 2275,
      "\"}": 2276,
      "08": 2277,
      "1m": 2278,
      "1z": 2279,
      "1hr": 2280,
      "22": 2281,
      "2h": 2282,
      "5m": 2283,
      "5s": 2284,
      "_123": 2285,
      "_alert": 2286,
      "dk": 2287,
      "dl": 2288,
      "dmar": 2289,
      "dau": 2290,
      "json": 2291,
      "kip": 2292,
      "ler": 2293,
      "mapping": 2294,
      "ny": 2295,
      "nex": 2296,
      "pes": 2297,
      "pay": 2298,
      "pull": 2299,
      "rou": 2300,
      "rare": 2301,
      "rates": 2302,
      "racti": 2303,
      "r_123": 2304,
      "sending": 2305,
      "skip": 2306,
      "twi": 2307,
      "tter": 2308,
      "t_count": 2309,
      "uu": 2310,
      "{\"": 2311,
      "},": 2312,
      "inve": 2313,
      "regi": 2314,
      "restart": 2315,
      "onential": 2316,
      "onents": 2317,
      "attemp": 2318,
      "atures": 2319,
      "enable": 2320,
      "stig": 2321,
      "stent": 2322,
      "ordered": 2323,
      "lean": 2324,
      "letter": 2325,
      "their": 2326,
      "apns": 2327,
      "mpot": 2328,
      "mpler": 2329,
      "lio": 2330,
      "igger": 2331,
      "igurable": 2332,
      "promo": 2333,
      "proper": 2334,
      "esp": 2335,
      "usr_123": 2336,
      "prefs": 2337,
      "retries": 2338,
      "resour": 2339,
      "stry": 2340,
      "spf": 2341,
      "spam": 2342,
      "sistent": 2343,
      "simpler": 2344,
      "americ": 2345,
      "trigger": 2346,
      "persistent": 2347,
      "order_id": 2348,
      "ride": 2349,
      "impracti": 2350,
      "sets": 2351,
      "features": 2352,
      "30m": 2353,
      "notification_id": 2354,
      "types": 2355,
      "tication": 2356,
      "sent_at": 2357,
      "in_app": 2358,
      "handle": 2359,
      "thentication": 2360,
      "exponential": 2361,
      "warming": 2362,
      "components": 2363,
      "dispatching": 2364,
      "override": 2365,
      "maintaining": 2366,
      "...\"": 2367,
      "unix": 2368,
      "connection": 2369,
      "supports": 2370,
      "deliveries": 2371,
      "deliverability": 2372,
      "lookup": 2373,
      "topics": 2374,
      "456": 2375,
      "scalable": 2376,
      "events": 2377,
      "authentication": 2378,
      "idempot": 2379,
      "delays": 2380,
      "delayed": 2381,
      "invalidate": 2382,
      "transaction": 2383,
      "millions": 2384,
      "security_alert": 2385,
      "fcm": 2386,
      "boolean": 2387,
      "alerts": 2388,
      "polls": 2389,
      "polling": 2390,
      "notification_log": 2391,
      "notification_preferences": 2392,
      "delivered_at": 2393,
      "scheduler": 2394,
      "scheduling": 2395,
      "reference_id": 2396,
      "status": 2397,
      "partitioning": 2398,
      "configurable": 2399,
      "dkim": 2400,
      "dlq": 2401,
      "dmarc": 2402,
      "jsonb": 2403,
      "nexmo": 2404,
      "payload": 2405,
      "route": 2406,
      "rarely": 2407,
      "twilio": 2408,
      "uuid": 2409,
      "investig": 2410,
      "registry": 2411,
      "restarts": 2412,
      "attempt_count": 2413,
      "enabled": 2414,
      "resources": 2415,
      "america": 2416,
      "impractical": 2417,
      "idempotency": 2418,
      "transactional": 2419,
      "investigation": 2420,
      "bre": 2421,
      "cut": 2422,
      "easi": 2423,
      "flow": 2424,
      "gant": 2425,
      "ique": 2426,
      "tes": 2427,
      "reas": 2428,
      "returning": 2429,
      "solve": 2430,
      "completes": 2431,
      "trust": 2432,
      "elegant": 2433,
      "singly": 2434,
      "reversal": 2435,
      "iteratively": 2436,
      "recursively": 2437,
      "technique": 2438,
      "reverses": 2439,
      "overwrit": 2440,
      "overflow": 2441,
      "reverselist_iterative": 2442,
      "initially": 2443,
      "break": 2444,
      "easier": 2445,
      "reason": 2446,
      "overwriting": 2447,
      "ax": 2448,
      "ei": 2449,
      "eli": 2450,
      "eck": 2451,
      "lin": 2452,
      "sate": 2453,
      "tlen": 2454,
      "ensate": 2455,
      "dest": 2456,
      "proof": 2457,
      "widest": 2458,
      "ends": 2459,
      "vertical": 2460,
      "shown": 2461,
      "mination": 2462,
      "minated": 2463,
      "maximum": 2464,
      "moves": 2465,
      "dominated": 2466,
      "worse": 2467,
      "compensate": 2468,
      "increase": 2469,
      "less": 2470,
      "bottlen": 2471,
      "stays": 2472,
      "misses": 2473,
      "axis": 2474,
      "either": 2475,
      "elimination": 2476,
      "lines": 2477,
      "bottleneck": 2478,
      "18": 2479,
      "_dp": 2480,
      "`)": 2481,
      "far": 2482,
      "ili": 2483,
      "iant": 2484,
      "uction": 2485,
      "xili": 2486,
      "²),": 2487,
      "invar": 2488,
      "reconstru": 2489,
      "room": 2490,
      "note": 2491,
      "induction": 2492,
      "parent": 2493,
      ")`:": 2494,
      "lengthoflis_dp": 2495,
      "auxili": 2496,
      "picked": 2497,
      "invariant": 2498,
      "reconstruct": 2499,
      "auxiliary": 2500,
      "'):": 2501,
      "'?**": 2502,
      "((": 2503,
      ")])": 2504,
      ")]:": 2505,
      ",-": 2506,
      "2d": 2507,
      "[(": 2508,
      "dist": 2509,
      "roun": 2510,
      "sink": 2511,
      "inct": 2512,
      "revisiting": 2513,
      "formed": 2514,
      "often": 2515,
      "very": 2516,
      "vertic": 2517,
      "preserv": 2518,
      "([(": 2519,
      "]=='": 2520,
      "grids": 2521,
      "lands": 2522,
      "worst": 2523,
      "adjacent": 2524,
      "bounds": 2525,
      "surroun": 2526,
      "),(-": 2527,
      "matters": 2528,
      "modifies": 2529,
      "connecting": 2530,
      "connected": 2531,
      "distinct": 2532,
      "vertically": 2533,
      "preserving": 2534,
      "surrounded": 2535,
      ")):": 2536,
      "_iterative": 2537,
      "`?**": 2538,
      "dou": 2539,
      "mask": 2540,
      "pow": 2541,
      "insp": 2542,
      "include": 2543,
      "copy": 2544,
      "exclude": 2545,
      "creates": 2546,
      "undo": 2547,
      "[]]`.": 2548,
      "[:])": 2549,
      "subsets_iterative": 2550,
      "`[[]]`.": 2551,
      "preventing": 2552,
      "[[]]": 2553,
      "bitmask": 2554,
      "object": 2555,
      "double": 2556,
      "power": 2557,
      "inspired": 2558,
      "')": 2559,
      "')]": 2560,
      "36": 2561,
      "`).": 2562,
      "deno": 2563,
      "kind": 2564,
      "ming": 2565,
      "inite": 2566,
      "program": 2567,
      "west": 2568,
      "amic": 2569,
      "minations": 2570,
      "cannot": 2571,
      "fewest": 2572,
      "uting": 2573,
      "`.\"": 2574,
      "computed": 2575,
      "computing": 2576,
      "...,": 2577,
      "infinite": 2578,
      "combination": 2579,
      "dynamic": 2580,
      "denominations": 2581,
      "programming": 2582,
      "\"...\",": 2583,
      "(),": 2584,
      "5t": 2585,
      "64": 2586,
      "80": 2587,
      "9a": 2588,
      "_al": 2589,
      "_days": 2590,
      "amo": 2591,
      "block": 2592,
      "cach": 2593,
      "clar": 2594,
      "cdn": 2595,
      "d5": 2596,
      "free": 2597,
      "hou": 2598,
      "hit": 2599,
      "ias": 2600,
      "lr": 2601,
      "miss": 2602,
      "md5": 2603,
      "plic": 2604,
      "rati": 2605,
      "sw": 2606,
      "za": 2607,
      "{...": 2608,
      "}/": 2609,
      "ination": 2610,
      "rehash": 2611,
      "replic": 2612,
      "ery": 2613,
      "enco": 2614,
      "eness": 2615,
      "anum": 2616,
      "ancer": 2617,
      "seo": 2618,
      "acy": 2619,
      "acent": 2620,
      "alph": 2621,
      "del": 2622,
      "itch": 2623,
      "coord": 2624,
      "heav": 2625,
      "iction": 2626,
      "ification": 2627,
      "uss": 2628,
      "spof": 2629,
      "extra": 2630,
      "model": 2631,
      "query": 2632,
      "queness": 2633,
      "countries": 2634,
      "trill": 2635,
      "ailability": 2636,
      "creations": 2637,
      "creating": 2638,
      "series": 2639,
      "terri": 2640,
      "great": 2641,
      "via": 2642,
      "uptime": 2643,
      "10b": 2644,
      "1042": 2645,
      "lish": 2646,
      "visits": 2647,
      "hashing": 2648,
      "locality": 2649,
      "synchronously": 2650,
      "body": 2651,
      "redirecting": 2652,
      "caches": 2653,
      "50ms": 2654,
      "abc123": 2655,
      "services": 2656,
      "generate": 2657,
      "uniqueness": 2658,
      "higher": 2659,
      "worker_id": 2660,
      "codes": 2661,
      "short_url": 2662,
      "consume": 2663,
      "optionally": 2664,
      "validate": 2665,
      "monotonically": 2666,
      "clicks": 2667,
      "click_count": 2668,
      "clickhou": 2669,
      "async": 2670,
      "asynchronously": 2671,
      "accuracy": 2672,
      "expiry_days": 2673,
      "eviction": 2674,
      "datacent": 2675,
      "guarantee": 2676,
      "horizontal": 2677,
      "shortener": 2678,
      "matter": 2679,
      "popular": 2680,
      "custom_al": 2681,
      "publish": 2682,
      "generation": 2683,
      "stats": 2684,
      "combinations": 2685,
      "dynamo": 2686,
      "://...\",": 2687,
      "availability": 2688,
      "balancer": 2689,
      "global": 2690,
      "globally": 2691,
      "expires_at": 2692,
      "browsers": 2693,
      "discuss": 2694,
      "covers": 2695,
      "cached": 2696,
      "clarification": 2697,
      "lru": 2698,
      "ratio": 2699,
      "switch": 2700,
      "{...}": 2701,
      "replicas": 2702,
      "encoding": 2703,
      "anumeric": 2704,
      "alphanumeric": 2705,
      "coordination": 2706,
      "heavy": 2707,
      "trillion": 2708,
      "terrible": 2709,
      "abc1234": 2710,
      "clickhouse": 2711,
      "datacenter_id": 2712,
      "custom_alias": 2713,
      "dynamodb": 2714,
      "`**": 2715,
      "`),": 2716,
      "bca": 2717,
      "cb": 2718,
      "cr": 2719,
      "ccur": 2720,
      "cab": 2721,
      "eared": 2722,
      "occur": 2723,
      "pw": 2724,
      "pas": 2725,
      "encounter": 2726,
      "itical": 2727,
      "ands": 2728,
      "appeared": 2729,
      "stale": 2730,
      "backward": 2731,
      "rence": 2732,
      "expands": 2733,
      "(\"\")": 2734,
      "past": 2735,
      "condition": 2736,
      "bbb": 2737,
      "bbbbb": 2738,
      "128": 2739,
      "lowercase": 2740,
      "shouldn": 2741,
      "ascii": 2742,
      "shrink": 2743,
      "wkew": 2744,
      "critical": 2745,
      "occurrence": 2746,
      "pwwkew": 2747,
      "passes": 2748,
      ")?**": 2749,
      "_buckets": 2750,
      "_common": 2751,
      "hig": 2752,
      "mum": 2753,
      "nally": 2754,
      "arding": 2755,
      "theore": 2756,
      "exce": 2757,
      "identi": 2758,
      "hest": 2759,
      "heapp": 2760,
      "weake": 2761,
      "heappop": 2762,
      "most_common": 2763,
      "optimum": 2764,
      "internally": 2765,
      ")`:**": 2766,
      "alternatively": 2767,
      "collect": 2768,
      "significantly": 2769,
      "topkfrequent_buckets": 2770,
      "candidate": 2771,
      "discarding": 2772,
      "factor": 2773,
      "highest": 2774,
      "theoretical": 2775,
      "exceed": 2776,
      "identical": 2777,
      "heappush": 2778,
      "weakest": 2779,
      "_optimized": 2780,
      "fu": 2781,
      "git": 2782,
      "ution": 2783,
      "uce": 2784,
      "zy": 2785,
      "zation": 2786,
      "zzy": 2787,
      "ention": 2788,
      "leven": 2789,
      "intention": 2790,
      "tein": 2791,
      "reduce": 2792,
      "shtein": 2793,
      "spel": 2794,
      "required": 2795,
      "checkers": 2796,
      "(\"\",": 2797,
      "mindistance_optimized": 2798,
      "keeping": 2799,
      "execution": 2800,
      "optimization": 2801,
      "matching": 2802,
      "applications": 2803,
      "dna": 2804,
      "differ": 2805,
      "fuzzy": 2806,
      "levenshtein": 2807,
      "spell": 2808,
      "\".": 2809,
      "'])": 2810,
      "))`": 2811,
      "aet": 2812,
      "ij": 2813,
      "kl": 2814,
      "mno": 2815,
      "pq": 2816,
      "rstu": 2817,
      "vw": 2818,
      "xy": 2819,
      "defgh": 2820,
      "orders": 2821,
      "([\"\"": 2822,
      "wrapping": 2823,
      "hashable": 2824,
      "produces": 2825,
      "abcdefgh": 2826,
      "())": 2827,
      "()`": 2828,
      "larger": 2829,
      "tuples": 2830,
      "[[\"\"]]": 2831,
      "storage": 2832,
      "))`?**": 2833,
      "ijkl": 2834,
      "mnopq": 2835,
      "rstuvw": 2836,
      "xyz": 2837,
      "([\"\"])": 2838,
      "abcdefghijkl": 2839,
      "mnopqrstuvw": 2840,
      "abcdefghijklmnopqrstuvw": 2841,
      "abcdefghijklmnopqrstuvwxyz": 2842,
      "agreed": 2843,
      "bative": 2844,
      "cate": 2845,
      "das": 2846,
      "done": 2847,
      "eas": 2848,
      "even": 2849,
      "gut": 2850,
      "hbo": 2851,
      "iated": 2852,
      "ialized": 2853,
      "mater": 2854,
      "ning": 2855,
      "pare": 2856,
      "sation": 2857,
      "sil": 2858,
      "say": 2859,
      "sla": 2860,
      "task": 2861,
      "uine": 2862,
      "win": 2863,
      "yle": 2864,
      "inion": 2865,
      "inability": 2866,
      "revisit": 2867,
      "ths": 2868,
      "thor": 2869,
      "thority": 2870,
      "star": 2871,
      "style": 2872,
      "lead": 2873,
      "ingest": 2874,
      "tigh": 2875,
      "urity": 2876,
      "roles": 2877,
      "apprec": 2878,
      "ument": 2879,
      "took": 2880,
      "cost": 2881,
      "comes": 2882,
      "lict": 2883,
      "expl": 2884,
      "expres": 2885,
      "idence": 2886,
      "meas": 2887,
      "promi": 2888,
      "advo": 2889,
      "verbally": 2890,
      "predict": 2891,
      "prepare": 2892,
      "acknow": 2893,
      "spent": 2894,
      "defer": 2895,
      "quick": 2896,
      "near": 2897,
      "being": 2898,
      "impact": 2899,
      "eling": 2900,
      "outcome": 2901,
      "outcomes": 2902,
      "aining": 2903,
      "dismis": 2904,
      "feeling": 2905,
      "opinion": 2906,
      "reads": 2907,
      "said": 2908,
      "context": 2909,
      "working": 2910,
      "migrate": 2911,
      "productively": 2912,
      "migrated": 2913,
      "months": 2914,
      "hourly": 2915,
      "yours": 2916,
      "genuine": 2917,
      "managers": 2918,
      "responsible": 2919,
      "rastructure": 2920,
      "presented": 2921,
      "ledged": 2922,
      "combative": 2923,
      "chose": 2924,
      "supported": 2925,
      "conversation": 2926,
      "batches": 2927,
      "running": 2928,
      "cares": 2929,
      "foundation": 2930,
      "framing": 2931,
      "positions": 2932,
      "stream": 2933,
      "downstream": 2934,
      "argument": 2935,
      "evidence": 2936,
      "written": 2937,
      "jection": 2938,
      "authority": 2939,
      "constructively": 2940,
      "infrastructure": 2941,
      "seeking": 2942,
      "behavioral": 2943,
      "maturity": 2944,
      "thinking": 2945,
      "operational": 2946,
      "professionally": 2947,
      "trying": 2948,
      "documenting": 2949,
      "documented": 2950,
      "quarter": 2951,
      "completely": 2952,
      "deadline": 2953,
      "conflict": 2954,
      "objection": 2955,
      "thought": 2956,
      "escalate": 2957,
      "escalating": 2958,
      "resolution": 2959,
      "resolve": 2960,
      "respected": 2961,
      "dashbo": 2962,
      "easily": 2963,
      "materialized": 2964,
      "silent": 2965,
      "saying": 2966,
      "thorough": 2967,
      "leadership": 2968,
      "ingestion": 2969,
      "tight": 2970,
      "appreciated": 2971,
      "explaining": 2972,
      "expressed": 2973,
      "measurable": 2974,
      "promised": 2975,
      "advocate": 2976,
      "predicted": 2977,
      "acknowledged": 2978,
      "dismissive": 2979,
      "dashboard": 2980
    },
    "merges": [
      [
        "i",
        "n"
      ],
      [
        "r",
        "e"
      ],
      [
        "e",
        "r"
      ],
      [
        "t",
        "h"
      ],
      [
        "o",
        "n"
      ],
      [
        "a",
        "t"
      ],
      [
        "e",
        "n"
      ],
      [
        "s",
        "t"
      ],
      [
        "a",
        "n"
      ],
      [
        "o",
        "r"
      ],
      [
        "*",
        "*"
      ],
      [
        "l",
        "e"
      ],
      [
        "s",
        "e"
      ],
      [
        "a",
        "c"
      ],
      [
        "a",
        "l"
      ],
      [
        "d",
        "e"
      ],
      [
        "o",
        "u"
      ],
      [
        "a",
        "r"
      ],
      [
        "th",
        "e"
      ],
      [
        "i",
        "t"
      ],
      [
        "i",
        "s"
      ],
      [
        "in",
        "g"
      ],
      [
        "t",
        "i"
      ],
      [
        "e",
        "d"
      ],
      [
        "u",
        "r"
      ],
      [
        "c",
        "h"
      ],
      [
        "r",
        "o"
      ],
      [
        "a",
        "p"
      ],
      [
        "u",
        "m"
      ],
      [
        "t",
        "o"
      ],
      [
        "`",
        "`"
      ],
      [
        "c",
        "o"
      ],
      [
        "m",
        "p"
      ],
      [
        "i",
        "on"
      ],
      [
        "l",
        "i"
      ],
      [
        "n",
        "o"
      ],
      [
        "u",
        "e"
      ],
      [
        "i",
        "g"
      ],
      [
        "f",
        "or"
      ],
      [
        "g",
        "e"
      ],
      [
        "e",
        "x"
      ],
      [
        "i",
        "d"
      ],
      [
        "en",
        "t"
      ],
      [
        "m",
        "e"
      ],
      [
        "o",
        "f"
      ],
      [
        "an",
        "d"
      ],
      [
        "k",
        "e"
      ],
      [
        "v",
        "e"
      ],
      [
        "h",
        "e"
      ],
      [
        "n",
        "um"
      ],
      [
        "in",
        "t"
      ],
      [
        "p",
        "ro"
      ],
      [
        "n",
        "t"
      ],
      [
        "i",
        "c"
      ],
      [
        ":",
        "**"
      ],
      [
        "a",
        "d"
      ],
      [
        "w",
        "i"
      ],
      [
        "al",
        "l"
      ],
      [
        "at",
        "ion"
      ],
      [
        "o",
        "w"
      ],
      [
        "or",
        "t"
      ],
      [
        "en",
        "d"
      ],
      [
        "p",
        "o"
      ],
      [
        "v",
        "er"
      ],
      [
        "a",
        "s"
      ],
      [
        "e",
        "s"
      ],
      [
        "i",
        "l"
      ],
      [
        "i",
        "f"
      ],
      [
        "wi",
        "th"
      ],
      [
        "u",
        "s"
      ],
      [
        "ac",
        "h"
      ],
      [
        "<",
        "|"
      ],
      [
        "|",
        ">"
      ],
      [
        "ig",
        "h"
      ],
      [
        "p",
        "re"
      ],
      [
        "``",
        "`"
      ],
      [
        "f",
        "t"
      ],
      [
        "at",
        "e"
      ],
      [
        "ac",
        "k"
      ],
      [
        "]",
        ","
      ],
      [
        "w",
        "h"
      ],
      [
        "t",
        "e"
      ],
      [
        "c",
        "ou"
      ],
      [
        "m",
        "a"
      ],
      [
        "c",
        "ur"
      ],
      [
        "or",
        "d"
      ],
      [
        "igh",
        "t"
      ],
      [
        "mp",
        "le"
      ],
      [
        "c",
        "on"
      ],
      [
        "ti",
        "me"
      ],
      [
        "q",
        "ue"
      ],
      [
        "a",
        "y"
      ],
      [
        "-",
        ">"
      ],
      [
        "m",
        "ent"
      ],
      [
        "u",
        "l"
      ],
      [
        "d",
        "p"
      ],
      [
        "re",
        "t"
      ],
      [
        "in",
        "d"
      ],
      [
        "a",
        "se"
      ],
      [
        "w",
        "e"
      ],
      [
        "re",
        "s"
      ],
      [
        "li",
        "st"
      ],
      [
        "ur",
        "n"
      ],
      [
        "ret",
        "urn"
      ],
      [
        "l",
        "y"
      ],
      [
        "it",
        "y"
      ],
      [
        "ti",
        "on"
      ],
      [
        "l",
        "o"
      ],
      [
        "le",
        "ft"
      ],
      [
        "re",
        "d"
      ],
      [
        "st",
        "r"
      ],
      [
        "l",
        "en"
      ],
      [
        "num",
        "s"
      ],
      [
        "c",
        "e"
      ],
      [
        "ac",
        "e"
      ],
      [
        "a",
        "b"
      ],
      [
        "ap",
        "pro"
      ],
      [
        "s",
        "h"
      ],
      [
        "]",
        ")"
      ],
      [
        "s",
        "p"
      ],
      [
        "r",
        "ight"
      ],
      [
        "ex",
        "t"
      ],
      [
        "de",
        "f"
      ],
      [
        "y",
        "ou"
      ],
      [
        "s",
        "i"
      ],
      [
        "ch",
        "ar"
      ],
      [
        "m",
        "o"
      ],
      [
        "g",
        "r"
      ],
      [
        "\"",
        ","
      ],
      [
        "appro",
        "ach"
      ],
      [
        "q",
        "u"
      ],
      [
        "n",
        "e"
      ],
      [
        "us",
        "er"
      ],
      [
        "s",
        "o"
      ],
      [
        "a",
        "m"
      ],
      [
        "co",
        "mple"
      ],
      [
        "s",
        "u"
      ],
      [
        "cou",
        "nt"
      ],
      [
        "t",
        "r"
      ],
      [
        "b",
        "u"
      ],
      [
        "ap",
        "p"
      ],
      [
        "sp",
        "ace"
      ],
      [
        "c",
        "t"
      ],
      [
        "w",
        "ind"
      ],
      [
        "wind",
        "ow"
      ],
      [
        "p",
        "y"
      ],
      [
        "a",
        "il"
      ],
      [
        "n",
        "ext"
      ],
      [
        "th",
        "on"
      ],
      [
        "py",
        "thon"
      ],
      [
        "s",
        "ort"
      ],
      [
        "m",
        "in"
      ],
      [
        "]",
        "`"
      ],
      [
        "re",
        "nt"
      ],
      [
        "co",
        "in"
      ],
      [
        "th",
        "at"
      ],
      [
        "no",
        "de"
      ],
      [
        "w",
        "ord"
      ],
      [
        "on",
        "e"
      ],
      [
        ")",
        ":"
      ],
      [
        "c",
        "re"
      ],
      [
        "p",
        "er"
      ],
      [
        "que",
        "ue"
      ],
      [
        "b",
        "e"
      ],
      [
        "pre",
        "v"
      ],
      [
        "s",
        "er"
      ],
      [
        "ul",
        "t"
      ],
      [
        "=",
        "["
      ],
      [
        "t",
        "er"
      ],
      [
        "#",
        "#"
      ],
      [
        "ord",
        "er"
      ],
      [
        "er",
        "at"
      ],
      [
        "an",
        "ge"
      ],
      [
        "g",
        "re"
      ],
      [
        "st",
        "a"
      ],
      [
        "no",
        "t"
      ],
      [
        "x",
        "ity"
      ],
      [
        "comple",
        "xity"
      ],
      [
        "an",
        "t"
      ],
      [
        "p",
        "l"
      ],
      [
        "cur",
        "rent"
      ],
      [
        ")",
        ","
      ],
      [
        "ge",
        "t"
      ],
      [
        "an",
        "s"
      ],
      [
        "po",
        "p"
      ],
      [
        "e",
        "le"
      ],
      [
        "w",
        "er"
      ],
      [
        "r",
        "i"
      ],
      [
        "st",
        "ack"
      ],
      [
        "a",
        "i"
      ],
      [
        "l",
        "u"
      ],
      [
        "a",
        "re"
      ],
      [
        "v",
        "i"
      ],
      [
        "r",
        "se"
      ],
      [
        "cou",
        "rse"
      ],
      [
        "ke",
        "y"
      ],
      [
        "le",
        "ve"
      ],
      [
        "leve",
        "l"
      ],
      [
        "l",
        "f"
      ],
      [
        "se",
        "lf"
      ],
      [
        "u",
        "p"
      ],
      [
        "re",
        "qu"
      ],
      [
        "e",
        "ach"
      ],
      [
        "u",
        "n"
      ],
      [
        "ele",
        "ment"
      ],
      [
        "ans",
        "wer"
      ],
      [
        "**",
        ":"
      ],
      [
        "c",
        "k"
      ],
      [
        "ur",
        "l"
      ],
      [
        "he",
        "ad"
      ],
      [
        "c",
        "y"
      ],
      [
        "an",
        "y"
      ],
      [
        "i",
        "mp"
      ],
      [
        "ke",
        "t"
      ],
      [
        "b",
        "ack"
      ],
      [
        "r",
        "ate"
      ],
      [
        "(",
        "["
      ],
      [
        "u",
        "se"
      ],
      [
        "d",
        "ay"
      ],
      [
        "c",
        "ase"
      ],
      [
        "app",
        "end"
      ],
      [
        "g",
        "er"
      ],
      [
        "red",
        "is"
      ],
      [
        "c",
        "tion"
      ],
      [
        "he",
        "ap"
      ],
      [
        "c",
        "al"
      ],
      [
        "se",
        "t"
      ],
      [
        "-",
        "-"
      ],
      [
        "f",
        "ro"
      ],
      [
        "fro",
        "m"
      ],
      [
        "su",
        "b"
      ],
      [
        "m",
        "it"
      ],
      [
        "li",
        "mit"
      ],
      [
        "ab",
        "le"
      ],
      [
        "\",",
        "\""
      ],
      [
        "o",
        "t"
      ],
      [
        "ti",
        "f"
      ],
      [
        "te",
        "mp"
      ],
      [
        "]",
        "["
      ],
      [
        "le",
        "ar"
      ],
      [
        "co",
        "l"
      ],
      [
        "l",
        "d"
      ],
      [
        "]",
        "="
      ],
      [
        "f",
        "s"
      ],
      [
        "m",
        "id"
      ],
      [
        "no",
        "tif"
      ],
      [
        "sort",
        "ed"
      ],
      [
        ")",
        "."
      ],
      [
        "in",
        "de"
      ],
      [
        "imp",
        "ort"
      ],
      [
        "e",
        "l"
      ],
      [
        "i",
        "ve"
      ],
      [
        "1",
        "0"
      ],
      [
        "c",
        "ket"
      ],
      [
        "t",
        "ar"
      ],
      [
        "tar",
        "get"
      ],
      [
        "m",
        "i"
      ],
      [
        "b",
        "y"
      ],
      [
        "wh",
        "i"
      ],
      [
        "all",
        "y"
      ],
      [
        "th",
        "is"
      ],
      [
        "v",
        "al"
      ],
      [
        "ou",
        "t"
      ],
      [
        "inde",
        "x"
      ],
      [
        "st",
        "e"
      ],
      [
        "c",
        "an"
      ],
      [
        "t",
        "ail"
      ],
      [
        "po",
        "int"
      ],
      [
        "ou",
        "nt"
      ],
      [
        "am",
        "ount"
      ],
      [
        "sh",
        "ort"
      ],
      [
        "t",
        "w"
      ],
      [
        "c",
        "es"
      ],
      [
        "ou",
        "r"
      ],
      [
        "ed",
        "ge"
      ],
      [
        "ar",
        "t"
      ],
      [
        "v",
        "en"
      ],
      [
        "bu",
        "t"
      ],
      [
        "us",
        "h"
      ],
      [
        "is",
        "it"
      ],
      [
        "a",
        "in"
      ],
      [
        "ma",
        "x"
      ],
      [
        "ch",
        "e"
      ],
      [
        "g",
        "th"
      ],
      [
        "len",
        "gth"
      ],
      [
        "r",
        "ange"
      ],
      [
        "r",
        "ay"
      ],
      [
        "ar",
        "ray"
      ],
      [
        "i",
        "re"
      ],
      [
        "d",
        "is"
      ],
      [
        "gre",
        "e"
      ],
      [
        "u",
        "re"
      ],
      [
        "ic",
        "ation"
      ],
      [
        "word",
        "1"
      ],
      [
        "str",
        "ing"
      ],
      [
        "p",
        "le"
      ],
      [
        "il",
        "l"
      ],
      [
        "case",
        "s"
      ],
      [
        "p",
        "ush"
      ],
      [
        "lu",
        "tion"
      ],
      [
        "no",
        "w"
      ],
      [
        "b",
        "er"
      ],
      [
        "en",
        "cy"
      ],
      [
        "w",
        "he"
      ],
      [
        "u",
        "st"
      ],
      [
        "res",
        "ult"
      ],
      [
        "f",
        "e"
      ],
      [
        "l",
        "on"
      ],
      [
        "tw",
        "o"
      ],
      [
        "3",
        "0"
      ],
      [
        "wh",
        "y"
      ],
      [
        "notif",
        "ication"
      ],
      [
        "]",
        ":"
      ],
      [
        "g",
        "i"
      ],
      [
        "h",
        "as"
      ],
      [
        "n",
        "one"
      ],
      [
        "[",
        "]"
      ],
      [
        "st",
        "art"
      ],
      [
        "so",
        "lution"
      ],
      [
        "a",
        "mple"
      ],
      [
        "a",
        "ft"
      ],
      [
        "aft",
        "er"
      ],
      [
        "cur",
        "r"
      ],
      [
        "gr",
        "id"
      ],
      [
        "ig",
        "n"
      ],
      [
        "tr",
        "ack"
      ],
      [
        "wh",
        "at"
      ],
      [
        "po",
        "s"
      ],
      [
        "at",
        "ch"
      ],
      [
        "ac",
        "t"
      ],
      [
        "th",
        "er"
      ],
      [
        "z",
        "e"
      ],
      [
        "w",
        "ar"
      ],
      [
        "lo",
        "g"
      ],
      [
        "ar",
        "ch"
      ],
      [
        "pl",
        "an"
      ],
      [
        "\"",
        ":"
      ],
      [
        "ex",
        "ample"
      ],
      [
        "sta",
        "ke"
      ],
      [
        "mi",
        "stake"
      ],
      [
        "whe",
        "re"
      ],
      [
        "u",
        "t"
      ],
      [
        "l",
        "is"
      ],
      [
        "g",
        "h"
      ],
      [
        "o",
        "p"
      ],
      [
        "ma",
        "ke"
      ],
      [
        "p",
        "e"
      ],
      [
        "se",
        "en"
      ],
      [
        "che",
        "ck"
      ],
      [
        "h",
        "al"
      ],
      [
        "word",
        "2"
      ],
      [
        "temp",
        "erat"
      ],
      [
        "gi",
        "ven"
      ],
      [
        "si",
        "ze"
      ],
      [
        "que",
        "st"
      ],
      [
        "_",
        "id"
      ],
      [
        "an",
        "a"
      ],
      [
        "m",
        "ar"
      ],
      [
        "w",
        "r"
      ],
      [
        "i",
        "m"
      ],
      [
        ".",
        "."
      ],
      [
        "re",
        "ad"
      ],
      [
        "d",
        "ing"
      ],
      [
        "tail",
        "s"
      ],
      [
        "t",
        "y"
      ],
      [
        "mo",
        "ve"
      ],
      [
        "coin",
        "s"
      ],
      [
        "at",
        "er"
      ],
      [
        "bu",
        "cket"
      ],
      [
        "k",
        "a"
      ],
      [
        "element",
        "s"
      ],
      [
        "ic",
        "al"
      ],
      [
        "h",
        "a"
      ],
      [
        "ou",
        "p"
      ],
      [
        "gr",
        "oup"
      ],
      [
        "ac",
        "ter"
      ],
      [
        "char",
        "acter"
      ],
      [
        "`",
        ","
      ],
      [
        "hal",
        "f"
      ],
      [
        "i",
        "r"
      ],
      [
        "c",
        "lear"
      ],
      [
        "ex",
        "plan"
      ],
      [
        "pro",
        "vi"
      ],
      [
        "import",
        "ant"
      ],
      [
        "ple",
        "ase"
      ],
      [
        "explan",
        "ation"
      ],
      [
        "provi",
        "de"
      ],
      [
        "re",
        "cur"
      ],
      [
        "##",
        "#"
      ],
      [
        "a",
        "ult"
      ],
      [
        "def",
        "ault"
      ],
      [
        "m",
        "ed"
      ],
      [
        "ser",
        "ver"
      ],
      [
        "ou",
        "gh"
      ],
      [
        "re",
        "n"
      ],
      [
        "ge",
        "st"
      ],
      [
        "v",
        "isit"
      ],
      [
        "l",
        "l"
      ],
      [
        "e",
        "ver"
      ],
      [
        "w",
        "as"
      ],
      [
        "de",
        "d"
      ],
      [
        "p",
        "ri"
      ],
      [
        "s",
        "ign"
      ],
      [
        "mo",
        "st"
      ],
      [
        "has",
        "h"
      ],
      [
        "se",
        "arch"
      ],
      [
        "he",
        "ight"
      ],
      [
        "med",
        "i"
      ],
      [
        "─",
        "─"
      ],
      [
        "l",
        "and"
      ],
      [
        "ro",
        "w"
      ],
      [
        "back",
        "track"
      ],
      [
        "<",
        "="
      ],
      [
        "s",
        "ing"
      ],
      [
        "ire",
        "ct"
      ],
      [
        "wh",
        "en"
      ],
      [
        "t",
        "able"
      ],
      [
        "s",
        "um"
      ],
      [
        "f",
        "requ"
      ],
      [
        "b",
        "ase"
      ],
      [
        "de",
        "gree"
      ],
      [
        "course",
        "s"
      ],
      [
        "s",
        "c"
      ],
      [
        "at",
        "a"
      ],
      [
        "lo",
        "cal"
      ],
      [
        "i",
        "p"
      ],
      [
        "s",
        "y"
      ],
      [
        "d",
        "o"
      ],
      [
        "e",
        "ger"
      ],
      [
        "int",
        "eger"
      ],
      [
        "ch",
        "an"
      ],
      [
        "o",
        "re"
      ],
      [
        "l",
        "a"
      ],
      [
        "point",
        "er"
      ],
      [
        "d",
        "fs"
      ],
      [
        "w",
        "ater"
      ],
      [
        "b",
        "le"
      ],
      [
        "count",
        "er"
      ],
      [
        "to",
        "p"
      ],
      [
        "it",
        "e"
      ],
      [
        "sub",
        "set"
      ],
      [
        "ou",
        "ld"
      ],
      [
        "s",
        "ion"
      ],
      [
        "url",
        "s"
      ],
      [
        "f",
        "ul"
      ],
      [
        "ac",
        "he"
      ],
      [
        "i",
        "st"
      ],
      [
        "ti",
        "c"
      ],
      [
        "re",
        "quest"
      ],
      [
        "all",
        "ow"
      ],
      [
        "ch",
        "ange"
      ],
      [
        "de",
        "cre"
      ],
      [
        "u",
        "res"
      ],
      [
        "on",
        "ly"
      ],
      [
        "re",
        "ver"
      ],
      [
        "it",
        "s"
      ],
      [
        "ou",
        "n"
      ],
      [
        "num",
        "ber"
      ],
      [
        "ation",
        "s"
      ],
      [
        "?",
        "**"
      ],
      [
        "s",
        "ent"
      ],
      [
        "s",
        "a"
      ],
      [
        "b",
        "o"
      ],
      [
        "se",
        "d"
      ],
      [
        "con",
        "t"
      ],
      [
        "w",
        "or"
      ],
      [
        "[",
        "["
      ],
      [
        "re",
        "q"
      ],
      [
        "in",
        "e"
      ],
      [
        "red",
        "irect"
      ],
      [
        "[",
        ":"
      ],
      [
        "ha",
        "ve"
      ],
      [
        "j",
        "ust"
      ],
      [
        "it",
        "ion"
      ],
      [
        "e",
        "t"
      ],
      [
        "ad",
        "d"
      ],
      [
        "m",
        "ig"
      ],
      [
        "in",
        "_"
      ],
      [
        "whi",
        "ch"
      ],
      [
        "f",
        "ill"
      ],
      [
        "li",
        "c"
      ],
      [
        "2",
        "0"
      ],
      [
        "temperat",
        "ures"
      ],
      [
        "ic",
        "e"
      ],
      [
        ")",
        "**"
      ],
      [
        "`",
        "."
      ],
      [
        "s",
        "m"
      ],
      [
        "it",
        "erat"
      ],
      [
        "iterat",
        "ive"
      ],
      [
        "si",
        "ve"
      ],
      [
        "d",
        "u"
      ],
      [
        "pro",
        "du"
      ],
      [
        "fe",
        "ren"
      ],
      [
        "c",
        "ache"
      ],
      [
        "lon",
        "gest"
      ],
      [
        "an",
        "ce"
      ],
      [
        "\"",
        ")"
      ],
      [
        "mig",
        "r"
      ],
      [
        "y",
        "tic"
      ],
      [
        "an",
        "al"
      ],
      [
        "ytic",
        "s"
      ],
      [
        "anal",
        "ytics"
      ],
      [
        "po",
        "st"
      ],
      [
        "f",
        "ail"
      ],
      [
        "k",
        "en"
      ],
      [
        "re",
        "fill"
      ],
      [
        "to",
        "ken"
      ],
      [
        "el",
        "se"
      ],
      [
        "ste",
        "m"
      ],
      [
        "sy",
        "stem"
      ],
      [
        "ne",
        "l"
      ],
      [
        "chan",
        "nel"
      ],
      [
        "next",
        "_"
      ],
      [
        "5",
        "0"
      ],
      [
        "h",
        "and"
      ],
      [
        "d",
        "ata"
      ],
      [
        "th",
        "en"
      ],
      [
        "c",
        "all"
      ],
      [
        "=",
        "="
      ],
      [
        "recur",
        "sive"
      ],
      [
        "whi",
        "le"
      ],
      [
        "l",
        "ow"
      ],
      [
        "ex",
        "p"
      ],
      [
        "medi",
        "um"
      ],
      [
        "ever",
        "y"
      ],
      [
        "visit",
        "ed"
      ],
      [
        "w",
        "ay"
      ],
      [
        "ne",
        "ed"
      ],
      [
        "subset",
        "s"
      ],
      [
        "ty",
        "pe"
      ],
      [
        "m",
        "on"
      ],
      [
        "h",
        "our"
      ],
      [
        "length",
        "of"
      ],
      [
        "de",
        "li"
      ],
      [
        "ab",
        "c"
      ],
      [
        "(",
        "\""
      ],
      [
        "re",
        "al"
      ],
      [
        "you",
        "r"
      ],
      [
        "gre",
        "ed"
      ],
      [
        "q",
        "l"
      ],
      [
        "in_",
        "degree"
      ],
      [
        "it",
        "er"
      ],
      [
        "ow",
        "n"
      ],
      [
        "node",
        "s"
      ],
      [
        "d",
        "id"
      ],
      [
        "s",
        "li"
      ],
      [
        "sli",
        "ding"
      ],
      [
        "'",
        ","
      ],
      [
        "e",
        "ma"
      ],
      [
        "ema",
        "il"
      ],
      [
        "pro",
        "ces"
      ],
      [
        "war",
        "m"
      ],
      [
        "ar",
        "y"
      ],
      [
        "ap",
        "i"
      ],
      [
        "as",
        "ing"
      ],
      [
        "ction",
        "s"
      ],
      [
        "ser",
        "v"
      ],
      [
        "(",
        ")"
      ],
      [
        "d",
        "if"
      ],
      [
        "at",
        "ed"
      ],
      [
        "tr",
        "a"
      ],
      [
        "ue",
        "s"
      ],
      [
        "re",
        "e"
      ],
      [
        "├",
        "──"
      ],
      [
        "cont",
        "ain"
      ],
      [
        "si",
        "ble"
      ],
      [
        "l",
        "at"
      ],
      [
        "lat",
        "ency"
      ],
      [
        "pl",
        "ace"
      ],
      [
        "pre",
        "feren"
      ],
      [
        "w",
        "ould"
      ],
      [
        "d",
        "b"
      ],
      [
        "en",
        "ce"
      ],
      [
        "with",
        "out"
      ],
      [
        "in",
        "k"
      ],
      [
        "=",
        "'"
      ],
      [
        "v",
        "s"
      ],
      [
        "g",
        "en"
      ],
      [
        "f",
        "req"
      ],
      [
        "ch",
        "n"
      ],
      [
        "te",
        "chn"
      ],
      [
        "ab",
        "out"
      ],
      [
        "comple",
        "ment"
      ],
      [
        "h",
        "ow"
      ],
      [
        "gr",
        "am"
      ],
      [
        "con",
        "str"
      ],
      [
        "`",
        "["
      ],
      [
        "m",
        "ana"
      ],
      [
        "dis",
        "a"
      ],
      [
        "mana",
        "ger"
      ],
      [
        "co",
        "mp"
      ],
      [
        "th",
        "an"
      ],
      [
        "at",
        "es"
      ],
      [
        "num",
        "courses"
      ],
      [
        "_",
        "size"
      ],
      [
        "so",
        "me"
      ],
      [
        "r",
        "ough"
      ],
      [
        "th",
        "rough"
      ],
      [
        "_",
        "count"
      ],
      [
        "m",
        "or"
      ],
      [
        "me",
        "mor"
      ],
      [
        "memor",
        "y"
      ],
      [
        "f",
        "ind"
      ],
      [
        "u",
        "te"
      ],
      [
        "lear",
        "n"
      ],
      [
        "b",
        "in"
      ],
      [
        "p",
        "atch"
      ],
      [
        "dis",
        "patch"
      ],
      [
        "on",
        "g"
      ],
      [
        "user",
        "_id"
      ],
      [
        "f",
        "ir"
      ],
      [
        "fir",
        "st"
      ],
      [
        "rever",
        "se"
      ],
      [
        "bo",
        "th"
      ],
      [
        "war",
        "d"
      ],
      [
        "o",
        "ver"
      ],
      [
        "row",
        "s"
      ],
      [
        "10",
        "0"
      ],
      [
        "in",
        "cre"
      ],
      [
        "example",
        "s"
      ],
      [
        "n",
        "c"
      ],
      [
        "int",
        "ain"
      ],
      [
        "ma",
        "intain"
      ],
      [
        "p",
        "on"
      ],
      [
        "res",
        "pon"
      ],
      [
        "oun",
        "d"
      ],
      [
        "..",
        "."
      ],
      [
        "en",
        "ti"
      ],
      [
        "or",
        "ity"
      ],
      [
        "r",
        "a"
      ],
      [
        "is",
        "land"
      ],
      [
        "ou",
        "s"
      ],
      [
        "pre",
        "sent"
      ],
      [
        "un",
        "i"
      ],
      [
        "al",
        "way"
      ],
      [
        "alway",
        "s"
      ],
      [
        "op",
        "ti"
      ],
      [
        "t",
        "t"
      ],
      [
        "max",
        "_"
      ],
      [
        "lon",
        "g"
      ],
      [
        "at",
        "ive"
      ],
      [
        "k",
        "ing"
      ],
      [
        "is",
        "s"
      ],
      [
        "30",
        "1"
      ],
      [
        "30",
        "2"
      ],
      [
        "im",
        "um"
      ],
      [
        "bucket",
        "s"
      ],
      [
        "ist",
        "ance"
      ],
      [
        "techn",
        "ical"
      ],
      [
        "act",
        "u"
      ],
      [
        "ana",
        "gram"
      ],
      [
        "le",
        "d"
      ],
      [
        "sh",
        "ip"
      ],
      [
        "co",
        "m"
      ],
      [
        "migr",
        "ation"
      ],
      [
        "int",
        "er"
      ],
      [
        "produ",
        "ction"
      ],
      [
        "ul",
        "l"
      ],
      [
        "m",
        "ap"
      ],
      [
        "ch",
        "o"
      ],
      [
        "de",
        "p"
      ],
      [
        "o",
        "ther"
      ],
      [
        "1",
        "5"
      ],
      [
        "c",
        "le"
      ],
      [
        "],",
        "["
      ],
      [
        "cy",
        "cle"
      ],
      [
        "ic",
        "es"
      ],
      [
        "mo",
        "re"
      ],
      [
        "level",
        "_size"
      ],
      [
        "request",
        "s"
      ],
      [
        "ad",
        "j"
      ],
      [
        "up",
        "lic"
      ],
      [
        "al",
        "read"
      ],
      [
        "alread",
        "y"
      ],
      [
        "7",
        "3"
      ],
      [
        "7",
        "5"
      ],
      [
        "7",
        "6"
      ],
      [
        "warm",
        "er"
      ],
      [
        "respon",
        "se"
      ],
      [
        "ex",
        "act"
      ],
      [
        "exact",
        "ly"
      ],
      [
        "pri",
        "ority"
      ],
      [
        "dispatch",
        "er"
      ],
      [
        "se",
        "qu"
      ],
      [
        "(",
        "'"
      ],
      [
        "h",
        "igh"
      ],
      [
        "b",
        "fs"
      ],
      [
        "con",
        "ne"
      ],
      [
        "serv",
        "ice"
      ],
      [
        "de",
        "sign"
      ],
      [
        "re",
        "present"
      ],
      [
        "sa",
        "me"
      ],
      [
        "time",
        "sta"
      ],
      [
        "timesta",
        "mp"
      ],
      [
        "i",
        "es"
      ],
      [
        "or",
        "i"
      ],
      [
        "al",
        "ter"
      ],
      [
        "m",
        "y"
      ],
      [
        "ar",
        "d"
      ],
      [
        "w",
        "id"
      ],
      [
        "w",
        "all"
      ],
      [
        "wid",
        "th"
      ],
      [
        "wor",
        "k"
      ],
      [
        "p",
        "p"
      ],
      [
        "su",
        "pp"
      ],
      [
        "supp",
        "ort"
      ],
      [
        "p",
        "a"
      ],
      [
        "a",
        "g"
      ],
      [
        "pre",
        "f"
      ],
      [
        ">",
        "="
      ],
      [
        "l",
        "ar"
      ],
      [
        "wr",
        "ite"
      ],
      [
        "]",
        "]"
      ],
      [
        "--",
        "-"
      ],
      [
        "de",
        "le"
      ],
      [
        ")",
        "`"
      ],
      [
        "sh",
        "ow"
      ],
      [
        "c",
        "li"
      ],
      [
        "co",
        "de"
      ],
      [
        "short",
        "_"
      ],
      [
        "f",
        "ka"
      ],
      [
        "ka",
        "fka"
      ],
      [
        "ate",
        "ly"
      ],
      [
        "min",
        "imum"
      ],
      [
        "sub",
        "string"
      ],
      [
        "sort",
        "ing"
      ],
      [
        "frequ",
        "ent"
      ],
      [
        "st",
        "er"
      ],
      [
        "character",
        "s"
      ],
      [
        "us",
        "ing"
      ],
      [
        "con",
        "ver"
      ],
      [
        "anagram",
        "s"
      ],
      [
        "ic",
        "t"
      ],
      [
        "o",
        "per"
      ],
      [
        "re",
        "ach"
      ],
      [
        "g",
        "res"
      ],
      [
        "n",
        "ull"
      ],
      [
        "post",
        "gres"
      ],
      [
        "postgres",
        "ql"
      ],
      [
        "b",
        "atch"
      ],
      [
        "as",
        "s"
      ],
      [
        "sc",
        "ri"
      ],
      [
        "fail",
        "ure"
      ],
      [
        "ind",
        "ices"
      ],
      [
        "iter",
        "ation"
      ],
      [
        "h",
        "ad"
      ],
      [
        "if",
        "ic"
      ],
      [
        "p",
        "ai"
      ],
      [
        "pai",
        "r"
      ],
      [
        "c",
        "ap"
      ],
      [
        "ac",
        "ity"
      ],
      [
        "ap",
        "sed"
      ],
      [
        "key",
        "_"
      ],
      [
        "el",
        "apsed"
      ],
      [
        "token",
        "s"
      ],
      [
        "cap",
        "acity"
      ],
      [
        "bin",
        "ary"
      ],
      [
        "_",
        "_"
      ],
      [
        "o",
        "m"
      ],
      [
        "f",
        "ore"
      ],
      [
        "be",
        "fore"
      ],
      [
        "p",
        "ar"
      ],
      [
        "m",
        "al"
      ],
      [
        "es",
        "s"
      ],
      [
        "7",
        "2"
      ],
      [
        "de",
        "que"
      ],
      [
        "d",
        "ail"
      ],
      [
        "dail",
        "y"
      ],
      [
        "con",
        "d"
      ],
      [
        "i",
        "et"
      ],
      [
        "qu",
        "iet"
      ],
      [
        "notification",
        "s"
      ],
      [
        "hour",
        "s"
      ],
      [
        "deli",
        "ver"
      ],
      [
        "co",
        "re"
      ],
      [
        "f",
        "f"
      ],
      [
        "ste",
        "p"
      ],
      [
        "r",
        "un"
      ],
      [
        "st",
        "ore"
      ],
      [
        "next_",
        "node"
      ],
      [
        "con",
        "sum"
      ],
      [
        "ne",
        "ver"
      ],
      [
        "pos",
        "sible"
      ],
      [
        "i",
        "se"
      ],
      [
        "v",
        "ar"
      ],
      [
        "cre",
        "ate"
      ],
      [
        "i",
        "x"
      ],
      [
        "ac",
        "ti"
      ],
      [
        "op",
        "tion"
      ],
      [
        "mar",
        "y"
      ],
      [
        "pri",
        "mary"
      ],
      [
        "o",
        "k"
      ],
      [
        "val",
        "id"
      ],
      [
        "all",
        "er"
      ],
      [
        "e",
        "c"
      ],
      [
        "ce",
        "ll"
      ],
      [
        "greed",
        "y"
      ],
      [
        "e",
        "ded"
      ],
      [
        "n",
        "ative"
      ],
      [
        "alter",
        "native"
      ],
      [
        "disa",
        "gree"
      ],
      [
        "end",
        "ing"
      ],
      [
        "col",
        "le"
      ],
      [
        "uni",
        "que"
      ],
      [
        "[",
        "\""
      ],
      [
        "de",
        "c"
      ],
      [
        "col",
        "lis"
      ],
      [
        "short_",
        "code"
      ],
      [
        "collis",
        "ion"
      ],
      [
        "i",
        "mple"
      ],
      [
        "imple",
        "ment"
      ],
      [
        "z",
        "ed"
      ],
      [
        "re",
        "place"
      ],
      [
        ")",
        ")"
      ],
      [
        "_",
        "index"
      ],
      [
        "b",
        "b"
      ],
      [
        "char",
        "_index"
      ],
      [
        "conver",
        "t"
      ],
      [
        "in",
        "ser"
      ],
      [
        "show",
        "s"
      ],
      [
        "inser",
        "t"
      ],
      [
        "t",
        "up"
      ],
      [
        "tup",
        "le"
      ],
      [
        "at",
        "ing"
      ],
      [
        "the",
        "y"
      ],
      [
        "n",
        "s"
      ],
      [
        "l",
        "ine"
      ],
      [
        "ro",
        "t"
      ],
      [
        "c",
        "er"
      ],
      [
        "col",
        "um"
      ],
      [
        "am",
        "ing"
      ],
      [
        "f",
        "all"
      ],
      [
        "1",
        "1"
      ],
      [
        "wi",
        "se"
      ],
      [
        "other",
        "wise"
      ],
      [
        "b",
        "r"
      ],
      [
        "pre",
        "requ"
      ],
      [
        "isit",
        "es"
      ],
      [
        "prerequ",
        "isites"
      ],
      [
        "ro",
        "ot"
      ],
      [
        "6",
        "0"
      ],
      [
        "_",
        "rate"
      ],
      [
        "t",
        "on"
      ],
      [
        "um",
        "ber"
      ],
      [
        "rate",
        "limit"
      ],
      [
        "allow",
        "s"
      ],
      [
        "refill",
        "_rate"
      ],
      [
        "ton",
        "umber"
      ],
      [
        "st",
        "ant"
      ],
      [
        "se",
        "cond"
      ],
      [
        "d",
        "uplic"
      ],
      [
        "lo",
        "ok"
      ],
      [
        "ma",
        "y"
      ],
      [
        "ma",
        "in"
      ],
      [
        "sing",
        "le"
      ],
      [
        "t",
        "ree"
      ],
      [
        "in",
        "it"
      ],
      [
        "se",
        "par"
      ],
      [
        "7",
        "1"
      ],
      [
        "7",
        "4"
      ],
      [
        "temperat",
        "ure"
      ],
      [
        "decre",
        "asing"
      ],
      [
        "l",
        "ing"
      ],
      [
        "we",
        "b"
      ],
      [
        "top",
        "ic"
      ],
      [
        "consum",
        "er"
      ],
      [
        "/",
        "/"
      ],
      [
        "n",
        "ap"
      ],
      [
        "s",
        "nap"
      ],
      [
        "sh",
        "ot"
      ],
      [
        "snap",
        "shot"
      ],
      [
        "o",
        "ld"
      ],
      [
        "la",
        "st"
      ],
      [
        "a",
        "it"
      ],
      [
        "w",
        "ait"
      ],
      [
        "w",
        "are"
      ],
      [
        "on",
        "ic"
      ],
      [
        "ot",
        "onic"
      ],
      [
        "mon",
        "otonic"
      ],
      [
        "list",
        "node"
      ],
      [
        "pref",
        "er"
      ],
      [
        "var",
        "char"
      ],
      [
        "1",
        "2"
      ],
      [
        "i",
        "res"
      ],
      [
        "recur",
        "sion"
      ],
      [
        "c",
        "lu"
      ],
      [
        "ro",
        "s"
      ],
      [
        "2",
        "4"
      ],
      [
        "are",
        "a"
      ],
      [
        "short",
        "er"
      ],
      [
        "contain",
        "er"
      ],
      [
        "s",
        "ight"
      ],
      [
        "v",
        "o"
      ],
      [
        "in",
        "sight"
      ],
      [
        "proces",
        "s"
      ],
      [
        "fe",
        "rent"
      ],
      [
        "dif",
        "ferent"
      ],
      [
        "a",
        "le"
      ],
      [
        "t",
        "z"
      ],
      [
        "sc",
        "ale"
      ],
      [
        "work",
        "s"
      ],
      [
        "il",
        "ity"
      ],
      [
        "ab",
        "ility"
      ],
      [
        "on",
        "ce"
      ],
      [
        "lengthof",
        "lis"
      ],
      [
        "f",
        "la"
      ],
      [
        "colle",
        "ctions"
      ],
      [
        "└",
        "──"
      ],
      [
        "a",
        "ke"
      ],
      [
        "m",
        "s"
      ],
      [
        "#",
        "'"
      ],
      [
        "'",
        "#'"
      ],
      [
        "n",
        "r"
      ],
      [
        "island",
        "s"
      ],
      [
        "c",
        "a"
      ],
      [
        "_",
        "at"
      ],
      [
        "tt",
        "l"
      ],
      [
        "ext",
        "end"
      ],
      [
        "sequ",
        "ence"
      ],
      [
        "i",
        "ous"
      ],
      [
        "ion",
        "s"
      ],
      [
        "`",
        ":"
      ],
      [
        "ver",
        "sion"
      ],
      [
        "learn",
        "ed"
      ],
      [
        "lo",
        "ad"
      ],
      [
        "l",
        "ay"
      ],
      [
        "iss",
        "ues"
      ],
      [
        "low",
        "er"
      ],
      [
        "requ",
        "ire"
      ],
      [
        "day",
        "s"
      ],
      [
        "\"",
        "],"
      ],
      [
        "ne",
        "eded"
      ],
      [
        "6",
        "2"
      ],
      [
        "_",
        "url"
      ],
      [
        "gen",
        "erat"
      ],
      [
        "long",
        "_url"
      ],
      [
        "cli",
        "ck"
      ],
      [
        "ct",
        "ure"
      ],
      [
        "f",
        "ound"
      ],
      [
        "longest",
        "substring"
      ],
      [
        "lengthof",
        "longestsubstring"
      ],
      [
        "bu",
        "il"
      ],
      [
        "char",
        "s"
      ],
      [
        "frequ",
        "ency"
      ],
      [
        "group",
        "s"
      ],
      [
        "m",
        "ind"
      ],
      [
        "dele",
        "te"
      ],
      [
        "mind",
        "istance"
      ],
      [
        ")",
        ":**"
      ],
      [
        "st",
        "ill"
      ],
      [
        "dec",
        "is"
      ],
      [
        "vi",
        "e"
      ],
      [
        "inter",
        "vie"
      ],
      [
        "be",
        "t"
      ],
      [
        "in",
        "ste"
      ],
      [
        "for",
        "m"
      ],
      [
        "inste",
        "ad"
      ],
      [
        "s",
        "ch"
      ],
      [
        "sch",
        "ed"
      ],
      [
        "string",
        "s"
      ],
      [
        "preferen",
        "ce"
      ],
      [
        "base",
        "d"
      ],
      [
        "a",
        "int"
      ],
      [
        "constr",
        "aint"
      ],
      [
        "f",
        "r"
      ],
      [
        "pos",
        "ition"
      ],
      [
        "d",
        "ict"
      ],
      [
        "o",
        "sing"
      ],
      [
        "con",
        "cer"
      ],
      [
        "cho",
        "osing"
      ],
      [
        "ra",
        "ther"
      ],
      [
        "two",
        "sum"
      ],
      [
        "ful",
        "ly"
      ],
      [
        "g",
        "ing"
      ],
      [
        "sta",
        "ging"
      ],
      [
        "did",
        "n"
      ],
      [
        "colum",
        "n"
      ],
      [
        "st",
        "re"
      ],
      [
        "wr",
        "ong"
      ],
      [
        "disagree",
        "ment"
      ],
      [
        "the",
        "re"
      ],
      [
        "en",
        "ough"
      ],
      [
        "tr",
        "ue"
      ],
      [
        "c",
        "l"
      ],
      [
        "m",
        "ust"
      ],
      [
        "decre",
        "ment"
      ],
      [
        "next_",
        "course"
      ],
      [
        "b",
        "ur"
      ],
      [
        "ap",
        "is"
      ],
      [
        "lu",
        "a"
      ],
      [
        "limit",
        "er"
      ],
      [
        "key_",
        "current"
      ],
      [
        "bur",
        "st"
      ],
      [
        "prev",
        "ent"
      ],
      [
        "4",
        "5"
      ],
      [
        "s",
        "al"
      ],
      [
        "m",
        "an"
      ],
      [
        "r",
        "on"
      ],
      [
        "per",
        "man"
      ],
      [
        "perman",
        "ent"
      ],
      [
        "]",
        "])"
      ],
      [
        "adj",
        "ac"
      ],
      [
        "limit",
        "ing"
      ],
      [
        "sign",
        "ific"
      ],
      [
        "signific",
        "ant"
      ],
      [
        "6",
        "9"
      ],
      [
        "k",
        "now"
      ],
      [
        "n",
        "ess"
      ],
      [
        "mistake",
        "s"
      ],
      [
        "some",
        "one"
      ],
      [
        "ri",
        "es"
      ],
      [
        "h",
        "ard"
      ],
      [
        "m",
        "ul"
      ],
      [
        "p",
        "r"
      ],
      [
        "ti",
        "ple"
      ],
      [
        "tra",
        "ff"
      ],
      [
        "mul",
        "tiple"
      ],
      [
        "traff",
        "ic"
      ],
      [
        "_",
        "type"
      ],
      [
        "se",
        "c"
      ],
      [
        "con",
        "si"
      ],
      [
        "so",
        "cket"
      ],
      [
        "ket",
        "ing"
      ],
      [
        "notif",
        "_type"
      ],
      [
        "mar",
        "keting"
      ],
      [
        "sm",
        "s"
      ],
      [
        "preferen",
        "ces"
      ],
      [
        "conne",
        "ctions"
      ],
      [
        "web",
        "socket"
      ],
      [
        "]",
        "]`"
      ],
      [
        "use",
        "s"
      ],
      [
        "val",
        "ues"
      ],
      [
        "er",
        "ate"
      ],
      [
        "o",
        "s"
      ],
      [
        "12",
        "3"
      ],
      [
        "as",
        "y"
      ],
      [
        "g",
        "ori"
      ],
      [
        "al",
        "gori"
      ],
      [
        "algori",
        "th"
      ],
      [
        "l",
        "ink"
      ],
      [
        "list",
        "_"
      ],
      [
        "reverse",
        "list_"
      ],
      [
        "f",
        "lo"
      ],
      [
        "st",
        "and"
      ],
      [
        "list",
        "s"
      ],
      [
        "hand",
        "ling"
      ],
      [
        "separ",
        "ate"
      ],
      [
        "+",
        "="
      ],
      [
        "im",
        "medi"
      ],
      [
        "prefer",
        "red"
      ],
      [
        "a",
        "ge"
      ],
      [
        "w",
        "al"
      ],
      [
        "wal",
        "k"
      ],
      [
        "t",
        "aller"
      ],
      [
        "in",
        "ward"
      ],
      [
        "max_",
        "water"
      ],
      [
        "t",
        "ake"
      ],
      [
        "se",
        "s"
      ],
      [
        "ac",
        "cur"
      ],
      [
        "h",
        "old"
      ],
      [
        "hold",
        "s"
      ],
      [
        "sh",
        "ould"
      ],
      [
        "t",
        "al"
      ],
      [
        "b",
        "ig"
      ],
      [
        "b",
        "ise"
      ],
      [
        "sub",
        "sequence"
      ],
      [
        "track",
        "ing"
      ],
      [
        "timestamp",
        "tz"
      ],
      [
        "24",
        "h"
      ],
      [
        "big",
        "int"
      ],
      [
        "bise",
        "ct"
      ],
      [
        "e",
        "mp"
      ],
      [
        "emp",
        "ty"
      ],
      [
        "col",
        "s"
      ],
      [
        "d",
        "own"
      ],
      [
        "at",
        "i"
      ],
      [
        "incre",
        "asing"
      ],
      [
        "]",
        "]:"
      ],
      [
        "le",
        "s"
      ],
      [
        "[[",
        "],"
      ],
      [
        ")",
        "]"
      ],
      [
        "s",
        "cal"
      ],
      [
        "coin",
        "change"
      ],
      [
        "ir",
        "y"
      ],
      [
        "exp",
        "iry"
      ],
      [
        "pa",
        "th"
      ],
      [
        "]",
        "."
      ],
      [
        "ar",
        "g"
      ],
      [
        "min",
        "ute"
      ],
      [
        "in",
        "to"
      ],
      [
        "e",
        "p"
      ],
      [
        "ke",
        "ep"
      ],
      [
        "e",
        "v"
      ],
      [
        "actu",
        "al"
      ],
      [
        "wr",
        "it"
      ],
      [
        "s",
        "now"
      ],
      [
        "id",
        "s"
      ],
      [
        "fla",
        "ke"
      ],
      [
        "snow",
        "flake"
      ],
      [
        "p",
        "ed"
      ],
      [
        "j",
        "e"
      ],
      [
        "g",
        "o"
      ],
      [
        "ne",
        "w"
      ],
      [
        "make",
        "s"
      ],
      [
        "max_",
        "len"
      ],
      [
        "a",
        "u"
      ],
      [
        "k",
        "frequent"
      ],
      [
        "ex",
        "ec"
      ],
      [
        "ment",
        "s"
      ],
      [
        "heap",
        "q"
      ],
      [
        "top",
        "kfrequent"
      ],
      [
        "require",
        "ments"
      ],
      [
        "prev",
        "ious"
      ],
      [
        "ic",
        "k"
      ],
      [
        "g",
        "ed"
      ],
      [
        "v",
        "ag"
      ],
      [
        "str",
        "ong"
      ],
      [
        "opti",
        "mi"
      ],
      [
        "oper",
        "ations"
      ],
      [
        "vag",
        "ue"
      ],
      [
        "\"",
        "]]"
      ],
      [
        "[[",
        "\""
      ],
      [
        "ex",
        "ist"
      ],
      [
        "constr",
        "u"
      ],
      [
        "in",
        "f"
      ],
      [
        "group",
        "anagrams"
      ],
      [
        "s",
        "on"
      ],
      [
        "actu",
        "ally"
      ],
      [
        "al",
        "ign"
      ],
      [
        "a",
        "ster"
      ],
      [
        "f",
        "aster"
      ],
      [
        "v",
        "ing"
      ],
      [
        "?",
        "\""
      ],
      [
        "c",
        "um"
      ],
      [
        "con",
        "cre"
      ],
      [
        "we",
        "re"
      ],
      [
        "concre",
        "te"
      ],
      [
        "w",
        "ant"
      ],
      [
        "se",
        "e"
      ],
      [
        "ar",
        "is"
      ],
      [
        "me",
        "et"
      ],
      [
        "comp",
        "aris"
      ],
      [
        "concer",
        "ns"
      ],
      [
        "stre",
        "aming"
      ],
      [
        "comparis",
        "on"
      ],
      [
        "rot",
        "ated"
      ],
      [
        "p",
        "ass"
      ],
      [
        "4",
        "7"
      ],
      [
        "c",
        "are"
      ],
      [
        "h",
        "app"
      ],
      [
        "s",
        "che"
      ],
      [
        "en",
        "ed"
      ],
      [
        "st",
        "ed"
      ],
      [
        "de",
        "scri"
      ],
      [
        "te",
        "sted"
      ],
      [
        "lo",
        "y"
      ],
      [
        "min",
        "ut"
      ],
      [
        "learn",
        "ing"
      ],
      [
        "dep",
        "loy"
      ],
      [
        "care",
        "ful"
      ],
      [
        "happ",
        "ened"
      ],
      [
        "sche",
        "ma"
      ],
      [
        "minut",
        "es"
      ],
      [
        "with",
        "in"
      ],
      [
        "in",
        "c"
      ],
      [
        "ad",
        "ded"
      ],
      [
        "e",
        "ar"
      ],
      [
        "o",
        "red"
      ],
      [
        "st",
        "ored"
      ],
      [
        "]`",
        ":"
      ],
      [
        "i",
        "de"
      ],
      [
        "ca",
        "use"
      ],
      [
        "change",
        "s"
      ],
      [
        ".",
        ","
      ],
      [
        "d",
        "at"
      ],
      [
        "lo",
        "ck"
      ],
      [
        "implement",
        "ation"
      ],
      [
        "b",
        "ound"
      ],
      [
        "re",
        "ct"
      ],
      [
        "or",
        "rect"
      ],
      [
        "ve",
        "red"
      ],
      [
        "50",
        "0"
      ],
      [
        "→",
        "["
      ],
      [
        "to",
        "po"
      ],
      [
        "pre",
        "req"
      ],
      [
        "edge",
        "s"
      ],
      [
        "log",
        "ical"
      ],
      [
        "find",
        "order"
      ],
      [
        "adjac",
        "ency"
      ],
      [
        "topo",
        "logical"
      ],
      [
        "proces",
        "sing"
      ],
      [
        "d",
        "ren"
      ],
      [
        "ch",
        "il"
      ],
      [
        "ver",
        "sal"
      ],
      [
        "tra",
        "versal"
      ],
      [
        "chil",
        "dren"
      ],
      [
        "ad",
        "ding"
      ],
      [
        "ros",
        "s"
      ],
      [
        "1",
        "60"
      ],
      [
        "9",
        "45"
      ],
      [
        "_",
        "window"
      ],
      [
        "_",
        "refill"
      ],
      [
        "d",
        "i"
      ],
      [
        "i",
        "but"
      ],
      [
        "p",
        "t"
      ],
      [
        "at",
        "om"
      ],
      [
        "str",
        "ibut"
      ],
      [
        "scri",
        "pt"
      ],
      [
        "last",
        "_refill"
      ],
      [
        "arg",
        "v"
      ],
      [
        "160",
        "945"
      ],
      [
        "di",
        "stribut"
      ],
      [
        "atom",
        "ic"
      ],
      [
        "160945",
        "9"
      ],
      [
        "distribut",
        "ed"
      ],
      [
        "²",
        ")"
      ],
      [
        "=[",
        "]"
      ],
      [
        "s",
        "ur"
      ],
      [
        "en",
        "um"
      ],
      [
        "enum",
        "erate"
      ],
      [
        "c",
        "and"
      ],
      [
        "opti",
        "mal"
      ],
      [
        "cand",
        "id"
      ],
      [
        "__",
        "init"
      ],
      [
        "cl",
        "ass"
      ],
      [
        "__init",
        "__"
      ],
      [
        "duplic",
        "ate"
      ],
      [
        "-",
        "="
      ],
      [
        "er",
        "s"
      ],
      [
        "requ",
        "ires"
      ],
      [
        "b",
        "oun"
      ],
      [
        "r",
        "y"
      ],
      [
        "ret",
        "ry"
      ],
      [
        "lar",
        "ge"
      ],
      [
        "°",
        "):"
      ],
      [
        "to",
        "day"
      ],
      [
        "prev",
        "_id"
      ],
      [
        "pop",
        "left"
      ],
      [
        "prev_id",
        "x"
      ],
      [
        "dep",
        "th"
      ],
      [
        "incre",
        "ment"
      ],
      [
        "en",
        "o"
      ],
      [
        "iter",
        "ate"
      ],
      [
        "je",
        "ct"
      ],
      [
        "n",
        "or"
      ],
      [
        "de",
        "lay"
      ],
      [
        "user",
        "s"
      ],
      [
        "50",
        "m"
      ],
      [
        "dispatcher",
        "s"
      ],
      [
        "deliver",
        "y"
      ],
      [
        "nor",
        "mal"
      ],
      [
        "de",
        "te"
      ],
      [
        "a",
        "k"
      ],
      [
        "en",
        "su"
      ],
      [
        "sm",
        "all"
      ],
      [
        "ensu",
        "res"
      ],
      [
        "4",
        "2"
      ],
      [
        "o",
        "d"
      ],
      [
        "re",
        "main"
      ],
      [
        "clu",
        "ster"
      ],
      [
        "remain",
        "ing"
      ],
      [
        "100",
        "0"
      ],
      [
        "fail",
        "s"
      ],
      [
        "rever",
        "sed"
      ],
      [
        "reverselist_",
        "recursive"
      ],
      [
        "ful",
        "l"
      ],
      [
        "si",
        "mple"
      ],
      [
        "arch",
        "ite"
      ],
      [
        "allow",
        "ed"
      ],
      [
        "archite",
        "cture"
      ],
      [
        "de",
        "red"
      ],
      [
        "ti",
        "l"
      ],
      [
        "un",
        "til"
      ],
      [
        "re",
        "pe"
      ],
      [
        "pointer",
        "s"
      ],
      [
        "f",
        "ut"
      ],
      [
        "g",
        "u"
      ],
      [
        "m",
        "atch"
      ],
      [
        "an",
        "te"
      ],
      [
        "ar",
        "ante"
      ],
      [
        "algorith",
        "m"
      ],
      [
        "fut",
        "ure"
      ],
      [
        "gu",
        "arante"
      ],
      [
        "key",
        "s"
      ],
      [
        ")",
        ";"
      ],
      [
        "s",
        "ql"
      ],
      [
        "decre",
        "ase"
      ],
      [
        "flo",
        "at"
      ],
      [
        "a",
        "ware"
      ],
      [
        "te",
        "am"
      ],
      [
        "be",
        "ha"
      ],
      [
        "vi",
        "or"
      ],
      [
        "sign",
        "al"
      ],
      [
        "chan",
        "ged"
      ],
      [
        "aware",
        "ness"
      ],
      [
        "beha",
        "vior"
      ],
      [
        "[",
        "[]"
      ],
      [
        "con",
        "stant"
      ],
      [
        "represent",
        "ing"
      ],
      [
        "pr",
        "acti"
      ],
      [
        "represent",
        "s"
      ],
      [
        "p",
        "ati"
      ],
      [
        "10",
        "1"
      ],
      [
        "pati",
        "ence"
      ],
      [
        "h",
        "ori"
      ],
      [
        "z",
        "on"
      ],
      [
        "hori",
        "zon"
      ],
      [
        "'",
        ":"
      ],
      [
        "9",
        "9"
      ],
      [
        "),",
        "("
      ],
      [
        "temp",
        "or"
      ],
      [
        "mar",
        "king"
      ],
      [
        "b",
        "ot"
      ],
      [
        "`",
        "[[],"
      ],
      [
        "v",
        "1"
      ],
      [
        "in",
        "valid"
      ],
      [
        "tr",
        "ans"
      ],
      [
        "2",
        "5"
      ],
      [
        "te",
        "ll"
      ],
      [
        "d",
        "er"
      ],
      [
        "i",
        "zed"
      ],
      [
        "un",
        "der"
      ],
      [
        "li",
        "ke"
      ],
      [
        "\"",
        ":**"
      ],
      [
        "b",
        "it"
      ],
      [
        "w",
        "on"
      ],
      [
        "immedi",
        "ately"
      ],
      [
        "d",
        "y"
      ],
      [
        "p",
        "ut"
      ],
      [
        "h",
        "its"
      ],
      [
        "h",
        "tt"
      ],
      [
        "as",
        "k"
      ],
      [
        "short",
        "en"
      ],
      [
        "base",
        "62"
      ],
      [
        "generat",
        "or"
      ],
      [
        "scal",
        "ing"
      ],
      [
        "htt",
        "p"
      ],
      [
        "str",
        "u"
      ],
      [
        "enti",
        "re"
      ],
      [
        "pre",
        "c"
      ],
      [
        "d",
        "istance"
      ],
      [
        "optimi",
        "zed"
      ],
      [
        "me",
        "s"
      ],
      [
        "ship",
        "ped"
      ],
      [
        "\"",
        "\""
      ],
      [
        "th",
        "ree"
      ],
      [
        "ut",
        "ed"
      ],
      [
        "intervie",
        "w"
      ],
      [
        "e",
        "at"
      ],
      [
        "m",
        "ight"
      ],
      [
        "te",
        "a"
      ],
      [
        "str",
        "s"
      ],
      [
        "default",
        "dict"
      ],
      [
        "in",
        "al"
      ],
      [
        "or",
        "ig"
      ],
      [
        "orig",
        "inal"
      ],
      [
        "u",
        "ally"
      ],
      [
        "us",
        "ually"
      ],
      [
        "m",
        "at"
      ],
      [
        "bet",
        "ter"
      ],
      [
        "to",
        "ge"
      ],
      [
        "toge",
        "ther"
      ],
      [
        "decis",
        "ion"
      ],
      [
        "constraint",
        "s"
      ],
      [
        "f",
        "es"
      ],
      [
        "g",
        "ine"
      ],
      [
        "s",
        "it"
      ],
      [
        "u",
        "ation"
      ],
      [
        "th",
        "ink"
      ],
      [
        "en",
        "gine"
      ],
      [
        "pro",
        "fes"
      ],
      [
        "su",
        "re"
      ],
      [
        "per",
        "son"
      ],
      [
        "oper",
        "ation"
      ],
      [
        "sit",
        "uation"
      ],
      [
        "engine",
        "er"
      ],
      [
        "profes",
        "sion"
      ],
      [
        "person",
        "al"
      ],
      [
        "sched",
        "u"
      ],
      [
        "ac",
        "tion"
      ],
      [
        "tr",
        "y"
      ],
      [
        "p",
        "ip"
      ],
      [
        "el",
        "ine"
      ],
      [
        "pip",
        "eline"
      ],
      [
        ".",
        "\""
      ],
      [
        "time",
        "line"
      ],
      [
        "do",
        "cum"
      ],
      [
        "disa",
        "greed"
      ],
      [
        "docum",
        "ent"
      ],
      [
        "de",
        "ter"
      ],
      [
        "min",
        "e"
      ],
      [
        "fall",
        "s"
      ],
      [
        "deter",
        "mine"
      ],
      [
        "val",
        "ue"
      ],
      [
        "b",
        "ing"
      ],
      [
        "b",
        "la"
      ],
      [
        "d",
        "ate"
      ],
      [
        "t",
        "ad"
      ],
      [
        "in",
        "stant"
      ],
      [
        "en",
        "vi"
      ],
      [
        "ac",
        "count"
      ],
      [
        "de",
        "mon"
      ],
      [
        "no",
        "on"
      ],
      [
        "id",
        "ay"
      ],
      [
        "me",
        "tad"
      ],
      [
        "con",
        "sequ"
      ],
      [
        "up",
        "date"
      ],
      [
        "after",
        "noon"
      ],
      [
        "migr",
        "ations"
      ],
      [
        "system",
        "ic"
      ],
      [
        "fr",
        "iday"
      ],
      [
        "ron",
        "ment"
      ],
      [
        "descri",
        "bing"
      ],
      [
        "bla",
        "me"
      ],
      [
        "envi",
        "ronment"
      ],
      [
        "account",
        "ability"
      ],
      [
        "demon",
        "str"
      ],
      [
        "metad",
        "ata"
      ],
      [
        "ar",
        "ies"
      ],
      [
        "bound",
        "aries"
      ],
      [
        "un",
        "reach"
      ],
      [
        "unreach",
        "able"
      ],
      [
        "integer",
        "s"
      ],
      [
        "hand",
        "les"
      ],
      [
        "buil",
        "t"
      ],
      [
        "candid",
        "ates"
      ],
      [
        "4",
        "0"
      ],
      [
        "p",
        "table"
      ],
      [
        "y",
        "es"
      ],
      [
        "st",
        "an"
      ],
      [
        "ac",
        "ce"
      ],
      [
        "pro",
        "ble"
      ],
      [
        "cou",
        "ld"
      ],
      [
        "con",
        "current"
      ],
      [
        "stand",
        "ard"
      ],
      [
        "stan",
        "ces"
      ],
      [
        "acce",
        "ptable"
      ],
      [
        "proble",
        "m"
      ],
      [
        "e",
        "asy"
      ],
      [
        "sp",
        "ec"
      ],
      [
        "spec",
        "ific"
      ],
      [
        "h",
        "r"
      ],
      [
        "l",
        "um"
      ],
      [
        "m",
        "ill"
      ],
      [
        "se",
        "cur"
      ],
      [
        "for",
        "ce"
      ],
      [
        "vi",
        "ve"
      ],
      [
        "check",
        "s"
      ],
      [
        "do",
        "main"
      ],
      [
        "enti",
        "al"
      ],
      [
        "br",
        "ute"
      ],
      [
        "vo",
        "lum"
      ],
      [
        "sur",
        "vive"
      ],
      [
        "secur",
        "ity"
      ],
      [
        "volum",
        "e"
      ],
      [
        "mo",
        "dif"
      ],
      [
        "it",
        "self"
      ],
      [
        "li",
        "er"
      ],
      [
        "as",
        "i"
      ],
      [
        "lo",
        "se"
      ],
      [
        "ear",
        "lier"
      ],
      [
        "in",
        "put"
      ],
      [
        "ent",
        "ries"
      ],
      [
        "st",
        "ay"
      ],
      [
        "as",
        "sum"
      ],
      [
        "assum",
        "e"
      ],
      [
        "a",
        "vo"
      ],
      [
        "b",
        "or"
      ],
      [
        "h",
        "n"
      ],
      [
        "de",
        "gre"
      ],
      [
        "igh",
        "bor"
      ],
      [
        "ne",
        "ighbor"
      ],
      [
        "ter",
        "s"
      ],
      [
        "order",
        "ing"
      ],
      [
        "ka",
        "hn"
      ],
      [
        "avo",
        "id"
      ],
      [
        "degre",
        "es"
      ],
      [
        "neighbor",
        "s"
      ],
      [
        "t",
        "re"
      ],
      [
        "level",
        "order"
      ],
      [
        "eno",
        "de"
      ],
      [
        "tre",
        "enode"
      ],
      [
        "as",
        "c"
      ],
      [
        "duplic",
        "ates"
      ],
      [
        "_",
        "start"
      ],
      [
        "a",
        "st"
      ],
      [
        "d",
        "le"
      ],
      [
        "f",
        "ix"
      ],
      [
        "x",
        "im"
      ],
      [
        "in",
        "ed"
      ],
      [
        "re",
        "ject"
      ],
      [
        "le",
        "ast"
      ],
      [
        "ac",
        "ross"
      ],
      [
        "de",
        "gr"
      ],
      [
        "ad",
        "ation"
      ],
      [
        "ma",
        "de"
      ],
      [
        "ace",
        "ful"
      ],
      [
        "appro",
        "xim"
      ],
      [
        "gr",
        "aceful"
      ],
      [
        "user",
        "123"
      ],
      [
        "su",
        "sta"
      ],
      [
        "window",
        "_start"
      ],
      [
        "be",
        "st"
      ],
      [
        "prev",
        "_count"
      ],
      [
        "current",
        "_count"
      ],
      [
        "current",
        "_window"
      ],
      [
        "mid",
        "dle"
      ],
      [
        "sy",
        "nc"
      ],
      [
        "counter",
        "s"
      ],
      [
        "key_",
        "prev"
      ],
      [
        "burst",
        "s"
      ],
      [
        "consi",
        "st"
      ],
      [
        "script",
        "s"
      ],
      [
        "prec",
        "ise"
      ],
      [
        "fix",
        "ed"
      ],
      [
        "degr",
        "adation"
      ],
      [
        "susta",
        "ined"
      ],
      [
        "middle",
        "ware"
      ],
      [
        "{",
        "}"
      ],
      [
        "tw",
        "ice"
      ],
      [
        "c",
        "ust"
      ],
      [
        "d",
        "ue"
      ],
      [
        "p",
        "h"
      ],
      [
        "p",
        "u"
      ],
      [
        "t",
        "ed"
      ],
      [
        "ti",
        "cket"
      ],
      [
        "pop",
        "ul"
      ],
      [
        "ag",
        "ain"
      ],
      [
        "dele",
        "ted"
      ],
      [
        "writ",
        "es"
      ],
      [
        "cust",
        "om"
      ],
      [
        "pu",
        "b"
      ],
      [
        "f",
        "c"
      ],
      [
        "r",
        "or"
      ],
      [
        "er",
        "ror"
      ],
      [
        "limit",
        "s"
      ],
      [
        "bo",
        "o"
      ],
      [
        "fall",
        "back"
      ],
      [
        "a",
        "red"
      ],
      [
        "init",
        "i"
      ],
      [
        "r",
        "is"
      ],
      [
        "use",
        "d"
      ],
      [
        "point",
        "s"
      ],
      [
        "daily",
        "temperatures"
      ],
      [
        "ris",
        "k"
      ],
      [
        "st",
        "or"
      ],
      [
        "app",
        "lic"
      ],
      [
        "wor",
        "ld"
      ],
      [
        "guarante",
        "es"
      ],
      [
        "0",
        "0"
      ],
      [
        "6",
        "k"
      ],
      [
        "_",
        "hours"
      ],
      [
        "_",
        "shipped"
      ],
      [
        "a",
        "ver"
      ],
      [
        "f",
        "ai"
      ],
      [
        "i",
        "os"
      ],
      [
        "s",
        "end"
      ],
      [
        "s",
        "core"
      ],
      [
        "u",
        "ed"
      ],
      [
        "z",
        "add"
      ],
      [
        "er",
        "t"
      ],
      [
        "al",
        "ert"
      ],
      [
        "ro",
        "id"
      ],
      [
        "ent",
        "s"
      ],
      [
        "of",
        "f"
      ],
      [
        "and",
        "roid"
      ],
      [
        "po",
        "ll"
      ],
      [
        "que",
        "ued"
      ],
      [
        "order",
        "_shipped"
      ],
      [
        "back",
        "off"
      ],
      [
        "notification",
        "_"
      ],
      [
        "pe",
        "ak"
      ],
      [
        "ded",
        "uplic"
      ],
      [
        "sa",
        "ge"
      ],
      [
        "channel",
        "s"
      ],
      [
        "50",
        "k"
      ],
      [
        "deli",
        "vered"
      ],
      [
        "quiet",
        "_hours"
      ],
      [
        "sched",
        "ul"
      ],
      [
        "500",
        "m"
      ],
      [
        "boun",
        "ce"
      ],
      [
        "mes",
        "sage"
      ],
      [
        "aver",
        "age"
      ],
      [
        "fai",
        "led"
      ],
      [
        "send",
        "grid"
      ],
      [
        "deduplic",
        "ation"
      ],
      [
        "visit",
        "ing"
      ],
      [
        "re",
        "feren"
      ],
      [
        "referen",
        "ce"
      ],
      [
        "st",
        "u"
      ],
      [
        "_",
        "head"
      ],
      [
        "v",
        "ance"
      ],
      [
        "for",
        "ward"
      ],
      [
        "ad",
        "vance"
      ],
      [
        "su",
        "ff"
      ],
      [
        "imp",
        "os"
      ],
      [
        "sa",
        "ve"
      ],
      [
        "cho",
        "ice"
      ],
      [
        "link",
        "ed"
      ],
      [
        "new",
        "_head"
      ],
      [
        "suff",
        "ix"
      ],
      [
        "impos",
        "sible"
      ],
      [
        "c",
        "orrect"
      ],
      [
        "st",
        "op"
      ],
      [
        "(",
        "~"
      ],
      [
        "t",
        "ally"
      ],
      [
        "add",
        "s"
      ],
      [
        "gen",
        "er"
      ],
      [
        "dete",
        "ction"
      ],
      [
        "horizon",
        "tally"
      ],
      [
        "h",
        "y"
      ],
      [
        "count",
        "s"
      ],
      [
        "br",
        "id"
      ],
      [
        "go",
        "od"
      ],
      [
        "hy",
        "brid"
      ],
      [
        "4",
        "9"
      ],
      [
        "i",
        "i"
      ],
      [
        "mo",
        "ving"
      ],
      [
        "max",
        "area"
      ],
      [
        "consi",
        "dered"
      ],
      [
        "decrease",
        "s"
      ],
      [
        "re",
        "move"
      ],
      [
        "contain",
        "s"
      ],
      [
        "exist",
        "s"
      ],
      [
        "t",
        "enti"
      ],
      [
        "po",
        "tenti"
      ],
      [
        "str",
        "ict"
      ],
      [
        "potenti",
        "ally"
      ],
      [
        "strict",
        "ly"
      ],
      [
        "_",
        "left"
      ],
      [
        "d",
        "irect"
      ],
      [
        "h",
        "ot"
      ],
      [
        "p",
        "art"
      ],
      [
        "t",
        "ext"
      ],
      [
        "re",
        "pl"
      ],
      [
        "er",
        "ic"
      ],
      [
        "st",
        "at"
      ],
      [
        "le",
        "st"
      ],
      [
        "ac",
        "es"
      ],
      [
        "al",
        "lest"
      ],
      [
        "sm",
        "allest"
      ],
      [
        "acti",
        "ve"
      ],
      [
        "option",
        "al"
      ],
      [
        "extend",
        "s"
      ],
      [
        "decis",
        "ions"
      ],
      [
        "bisect",
        "_left"
      ],
      [
        "direct",
        "ly"
      ],
      [
        "part",
        "ition"
      ],
      [
        "repl",
        "aces"
      ],
      [
        "d",
        "c"
      ],
      [
        "d",
        "r"
      ],
      [
        "to",
        "tal"
      ],
      [
        "num",
        "islands"
      ],
      [
        "un",
        "visited"
      ],
      [
        "mar",
        "k"
      ],
      [
        "conne",
        "ct"
      ],
      [
        "cell",
        "s"
      ],
      [
        "g",
        "ive"
      ],
      [
        "p",
        "ick"
      ],
      [
        "]`",
        ","
      ],
      [
        "give",
        "s"
      ],
      [
        "!",
        "="
      ],
      [
        "[",
        "])"
      ],
      [
        "s",
        "in"
      ],
      [
        "start",
        "ing"
      ],
      [
        "backtrack",
        "ing"
      ],
      [
        "[:",
        "]`"
      ],
      [
        "clu",
        "de"
      ],
      [
        "sin",
        "ce"
      ],
      [
        "m",
        "one"
      ],
      [
        "to",
        "m"
      ],
      [
        "constru",
        "ction"
      ],
      [
        "bot",
        "tom"
      ],
      [
        "mone",
        "y"
      ],
      [
        "ti",
        "cal"
      ],
      [
        "time",
        "s"
      ],
      [
        "app",
        "ing"
      ],
      [
        "we",
        "en"
      ],
      [
        "sm",
        "aller"
      ],
      [
        "bet",
        "ween"
      ],
      [
        "keep",
        "s"
      ],
      [
        "m",
        "any"
      ],
      [
        "com",
        "bin"
      ],
      [
        "dy",
        "n"
      ],
      [
        "return",
        "s"
      ],
      [
        "how",
        "ever"
      ],
      [
        "lar",
        "gest"
      ],
      [
        "/",
        "{"
      ],
      [
        ":",
        "//"
      ],
      [
        "a",
        "v"
      ],
      [
        "b",
        "al"
      ],
      [
        "b",
        "row"
      ],
      [
        "g",
        "lo"
      ],
      [
        "i",
        "red"
      ],
      [
        "n",
        "ch"
      ],
      [
        "er",
        "_id"
      ],
      [
        "]`",
        "."
      ],
      [
        "cre",
        "ated"
      ],
      [
        "redirect",
        "s"
      ],
      [
        "exp",
        "ires"
      ],
      [
        "100",
        "m"
      ],
      [
        "...",
        "\","
      ],
      [
        "ous",
        "ly"
      ],
      [
        "cli",
        "ent"
      ],
      [
        "generat",
        "ed"
      ],
      [
        "ron",
        "ously"
      ],
      [
        "accur",
        "ate"
      ],
      [
        "tempor",
        "ary"
      ],
      [
        "invalid",
        "ation"
      ],
      [
        "shorten",
        "ing"
      ],
      [
        "http",
        "s"
      ],
      [
        "brow",
        "ser"
      ],
      [
        "nch",
        "ronously"
      ],
      [
        "created",
        "_at"
      ],
      [
        "in",
        "ition"
      ],
      [
        "st",
        "ate"
      ],
      [
        "def",
        "inition"
      ],
      [
        "pl",
        "us"
      ],
      [
        "trans",
        "ition"
      ],
      [
        "sh",
        "r"
      ],
      [
        "dis",
        "c"
      ],
      [
        "m",
        "ut"
      ],
      [
        "w",
        "ke"
      ],
      [
        "abc",
        "abc"
      ],
      [
        "repe",
        "ating"
      ],
      [
        "mut",
        "able"
      ],
      [
        "abcabc",
        "bb"
      ],
      [
        "d",
        "n"
      ],
      [
        "co",
        "ver"
      ],
      [
        "hand",
        "led"
      ],
      [
        "need",
        "s"
      ],
      [
        "(",
        "):"
      ],
      [
        "<",
        "<"
      ],
      [
        "c",
        "ies"
      ],
      [
        "en",
        "cies"
      ],
      [
        "frequ",
        "encies"
      ],
      [
        "ite",
        "ms"
      ],
      [
        ".",
        "'"
      ],
      [
        "e",
        "th"
      ],
      [
        "e",
        "st"
      ],
      [
        "e",
        "val"
      ],
      [
        "h",
        "or"
      ],
      [
        "l",
        "ater"
      ],
      [
        "u",
        "ating"
      ],
      [
        "er",
        "ship"
      ],
      [
        "al",
        "so"
      ],
      [
        "ed",
        "it"
      ],
      [
        "ro",
        "le"
      ],
      [
        "pre",
        "s"
      ],
      [
        "qu",
        "ar"
      ],
      [
        "wer",
        "s"
      ],
      [
        "whe",
        "ther"
      ],
      [
        "quest",
        "ion"
      ],
      [
        "quest",
        "ions"
      ],
      [
        "dif",
        "f"
      ],
      [
        "iss",
        "ue"
      ],
      [
        "pref",
        "ix"
      ],
      [
        "intervie",
        "wers"
      ],
      [
        "under",
        "stand"
      ],
      [
        "engineer",
        "ing"
      ],
      [
        "profession",
        "al"
      ],
      [
        "eth",
        "ical"
      ],
      [
        "eval",
        "uating"
      ],
      [
        "hor",
        "se"
      ],
      [
        "2",
        "6"
      ],
      [
        "practi",
        "ce"
      ],
      [
        "\"",
        "])"
      ],
      [
        "b",
        "at"
      ],
      [
        "n",
        "at"
      ],
      [
        "t",
        "an"
      ],
      [
        "on",
        "ical"
      ],
      [
        "([",
        "\""
      ],
      [
        "can",
        "onical"
      ],
      [
        "co",
        "me"
      ],
      [
        "com",
        "ing"
      ],
      [
        "d",
        "on"
      ],
      [
        "comple",
        "te"
      ],
      [
        "al",
        "ized"
      ],
      [
        "il",
        "y"
      ],
      [
        "exec",
        "uted"
      ],
      [
        "he",
        "re"
      ],
      [
        "wh",
        "o"
      ],
      [
        "de",
        "ad"
      ],
      [
        "ur",
        "able"
      ],
      [
        "con",
        "f"
      ],
      [
        "lay",
        "er"
      ],
      [
        "l",
        "ve"
      ],
      [
        "m",
        "is"
      ],
      [
        "stru",
        "cture"
      ],
      [
        "t",
        "en"
      ],
      [
        "o",
        "b"
      ],
      [
        "exist",
        "ing"
      ],
      [
        "be",
        "en"
      ],
      [
        "b",
        "ally"
      ],
      [
        "of",
        "fs"
      ],
      [
        "tra",
        "de"
      ],
      [
        "form",
        "at"
      ],
      [
        "f",
        "act"
      ],
      [
        "appro",
        "ache"
      ],
      [
        "com",
        "mon"
      ],
      [
        "approache",
        "s"
      ],
      [
        "align",
        "ment"
      ],
      [
        "c",
        "ti"
      ],
      [
        "f",
        "o"
      ],
      [
        "th",
        "ough"
      ],
      [
        "is",
        "ing"
      ],
      [
        "to",
        "type"
      ],
      [
        "ve",
        "ly"
      ],
      [
        "pro",
        "ving"
      ],
      [
        "pro",
        "totype"
      ],
      [
        "es",
        "cal"
      ],
      [
        "res",
        "o"
      ],
      [
        "res",
        "pe"
      ],
      [
        "si",
        "de"
      ],
      [
        "am",
        "ed"
      ],
      [
        "ber",
        "ately"
      ],
      [
        "ll",
        "ow"
      ],
      [
        "produ",
        "ct"
      ],
      [
        "deli",
        "berately"
      ],
      [
        "ra",
        "ising"
      ],
      [
        "inter",
        "personal"
      ],
      [
        "buil",
        "ding"
      ],
      [
        "fr",
        "amed"
      ],
      [
        "want",
        "ed"
      ],
      [
        "see",
        "ing"
      ],
      [
        "meet",
        "ing"
      ],
      [
        "schedu",
        "led"
      ],
      [
        "cti",
        "vely"
      ],
      [
        "fo",
        "llow"
      ],
      [
        "respe",
        "ct"
      ],
      [
        "(",
        "`"
      ],
      [
        ".",
        ")"
      ],
      [
        "`",
        "("
      ],
      [
        "`",
        "<="
      ],
      [
        "i",
        "v"
      ],
      [
        "i",
        "ed"
      ],
      [
        "p",
        "iv"
      ],
      [
        "the",
        "se"
      ],
      [
        "ve",
        "s"
      ],
      [
        "lo",
        "it"
      ],
      [
        "])",
        "`"
      ],
      [
        "]`",
        ":**"
      ],
      [
        "]`",
        "):"
      ],
      [
        "un",
        "sorted"
      ],
      [
        "log",
        "ic"
      ],
      [
        "hal",
        "ves"
      ],
      [
        "exp",
        "loit"
      ],
      [
        "dec",
        "ide"
      ],
      [
        "rot",
        "ation"
      ],
      [
        "rot",
        "ations"
      ],
      [
        "inc",
        "orrect"
      ],
      [
        "modif",
        "ied"
      ],
      [
        "asc",
        "ending"
      ],
      [
        "`<=",
        "`"
      ],
      [
        "piv",
        "ot"
      ],
      [
        "incorrect",
        "ly"
      ],
      [
        "`",
        "?\""
      ],
      [
        "a",
        "head"
      ],
      [
        "in",
        "ue"
      ],
      [
        "number",
        "s"
      ],
      [
        "cont",
        "inue"
      ],
      [
        "comp",
        "ute"
      ],
      [
        "pair",
        "s"
      ],
      [
        "separ",
        "ately"
      ],
      [
        "stor",
        "ing"
      ],
      [
        "+",
        ","
      ],
      [
        "_",
        "o"
      ],
      [
        "a",
        "w"
      ],
      [
        "b",
        "l"
      ],
      [
        "b",
        "reach"
      ],
      [
        "c",
        "ir"
      ],
      [
        "c",
        "ata"
      ],
      [
        "c",
        "lose"
      ],
      [
        "e",
        "m"
      ],
      [
        "f",
        "il"
      ],
      [
        "g",
        "ot"
      ],
      [
        "g",
        "gest"
      ],
      [
        "g",
        "_o"
      ],
      [
        "h",
        "ar"
      ],
      [
        "h",
        "ur"
      ],
      [
        "h",
        "id"
      ],
      [
        "i",
        "ze"
      ],
      [
        "i",
        "br"
      ],
      [
        "k",
        "ward"
      ],
      [
        "l",
        "ation"
      ],
      [
        "m",
        "ort"
      ],
      [
        "o",
        "ling"
      ],
      [
        "p",
        "or"
      ],
      [
        "p",
        "ir"
      ],
      [
        "p",
        "g_o"
      ],
      [
        "r",
        "an"
      ],
      [
        "s",
        "ample"
      ],
      [
        "t",
        "in"
      ],
      [
        "w",
        "ro"
      ],
      [
        "y",
        "ear"
      ],
      [
        "in",
        "consequ"
      ],
      [
        "re",
        "co"
      ],
      [
        "re",
        "write"
      ],
      [
        "re",
        "writes"
      ],
      [
        "re",
        "lation"
      ],
      [
        "th",
        "ing"
      ],
      [
        "on",
        "gest"
      ],
      [
        "on",
        "line"
      ],
      [
        "en",
        "tif"
      ],
      [
        "en",
        "ces"
      ],
      [
        "st",
        "ro"
      ],
      [
        "le",
        "ction"
      ],
      [
        "se",
        "ver"
      ],
      [
        "se",
        "eded"
      ],
      [
        "al",
        "t"
      ],
      [
        "al",
        "ity"
      ],
      [
        "de",
        "tail"
      ],
      [
        "de",
        "alt"
      ],
      [
        "ur",
        "ally"
      ],
      [
        "ro",
        "ll"
      ],
      [
        "to",
        "oling"
      ],
      [
        "li",
        "es"
      ],
      [
        "ex",
        "cl"
      ],
      [
        "id",
        "ent"
      ],
      [
        "id",
        "entif"
      ],
      [
        "he",
        "ld"
      ],
      [
        "pro",
        "por"
      ],
      [
        "as",
        "king"
      ],
      [
        "as",
        "pir"
      ],
      [
        "es",
        "n"
      ],
      [
        "us",
        "ive"
      ],
      [
        "ma",
        "king"
      ],
      [
        "ase",
        "t"
      ],
      [
        "tion",
        "ality"
      ],
      [
        "str",
        "ongest"
      ],
      [
        "ce",
        "o"
      ],
      [
        "ab",
        "ase"
      ],
      [
        "appro",
        "pri"
      ],
      [
        "sh",
        "ared"
      ],
      [
        "def",
        "lection"
      ],
      [
        "su",
        "ggest"
      ],
      [
        "app",
        "lies"
      ],
      [
        "ct",
        "urally"
      ],
      [
        "ser",
        "ious"
      ],
      [
        "answer",
        "s"
      ],
      [
        "any",
        "where"
      ],
      [
        "cal",
        "ibr"
      ],
      [
        "ven",
        "ess"
      ],
      [
        "check",
        "ing"
      ],
      [
        "check",
        "list"
      ],
      [
        "check",
        "lists"
      ],
      [
        "im",
        "ated"
      ],
      [
        "do",
        "esn"
      ],
      [
        "lic",
        "ly"
      ],
      [
        "system",
        "s"
      ],
      [
        "hand",
        "s"
      ],
      [
        "real",
        "ize"
      ],
      [
        "own",
        "ed"
      ],
      [
        "own",
        "ership"
      ],
      [
        "some",
        "thing"
      ],
      [
        "over",
        "ly"
      ],
      [
        "led",
        "ge"
      ],
      [
        "other",
        "s"
      ],
      [
        "represent",
        "ative"
      ],
      [
        "my",
        "self"
      ],
      [
        "pa",
        "ge"
      ],
      [
        "ag",
        "o"
      ],
      [
        "batch",
        "ed"
      ],
      [
        "had",
        "n"
      ],
      [
        "option",
        "s"
      ],
      [
        "colum",
        "ns"
      ],
      [
        "old",
        "er"
      ],
      [
        "different",
        "ly"
      ],
      [
        "fla",
        "g"
      ],
      [
        "version",
        "s"
      ],
      [
        "concer",
        "n"
      ],
      [
        "permanent",
        "ly"
      ],
      [
        "know",
        "ing"
      ],
      [
        "know",
        "ledge"
      ],
      [
        "hard",
        "er"
      ],
      [
        "immedi",
        "ate"
      ],
      [
        "accur",
        "ately"
      ],
      [
        "ev",
        "asi"
      ],
      [
        "cum",
        "stances"
      ],
      [
        "descri",
        "be"
      ],
      [
        "deploy",
        "ing"
      ],
      [
        "deploy",
        "ed"
      ],
      [
        "deploy",
        "ment"
      ],
      [
        "inc",
        "ident"
      ],
      [
        "cause",
        "d"
      ],
      [
        "dat",
        "aset"
      ],
      [
        "dat",
        "abase"
      ],
      [
        "repe",
        "at"
      ],
      [
        "practi",
        "ces"
      ],
      [
        "stru",
        "cturally"
      ],
      [
        "consequ",
        "ences"
      ],
      [
        "demonstr",
        "ate"
      ],
      [
        "demonstr",
        "ates"
      ],
      [
        "concurrent",
        "ly"
      ],
      [
        "standard",
        "ized"
      ],
      [
        "mill",
        "ion"
      ],
      [
        "stay",
        "ed"
      ],
      [
        "ph",
        "ic"
      ],
      [
        "ticket",
        "s"
      ],
      [
        "popul",
        "ate"
      ],
      [
        "custom",
        "ers"
      ],
      [
        "pub",
        "licly"
      ],
      [
        "applic",
        "ation"
      ],
      [
        "stu",
        "ck"
      ],
      [
        "est",
        "imated"
      ],
      [
        "pres",
        "sure"
      ],
      [
        "quar",
        "ters"
      ],
      [
        "understand",
        "ing"
      ],
      [
        "aw",
        "kward"
      ],
      [
        "bl",
        "aming"
      ],
      [
        "cir",
        "cumstances"
      ],
      [
        "cata",
        "stro"
      ],
      [
        "fil",
        "ing"
      ],
      [
        "har",
        "m"
      ],
      [
        "hur",
        "t"
      ],
      [
        "hid",
        "ing"
      ],
      [
        "mort",
        "em"
      ],
      [
        "pg_o",
        "sc"
      ],
      [
        "sample",
        "d"
      ],
      [
        "tin",
        "y"
      ],
      [
        "wro",
        "te"
      ],
      [
        "year",
        "s"
      ],
      [
        "inconsequ",
        "ential"
      ],
      [
        "reco",
        "vered"
      ],
      [
        "relation",
        "ship"
      ],
      [
        "sever",
        "ity"
      ],
      [
        "roll",
        "back"
      ],
      [
        "excl",
        "usive"
      ],
      [
        "identif",
        "y"
      ],
      [
        "propor",
        "tionality"
      ],
      [
        "aspir",
        "ation"
      ],
      [
        "appropri",
        "ate"
      ],
      [
        "suggest",
        "s"
      ],
      [
        "calibr",
        "ation"
      ],
      [
        "evasi",
        "veness"
      ],
      [
        "awkward",
        "ness"
      ],
      [
        "catastro",
        "phic"
      ],
      [
        "]",
        ":**"
      ],
      [
        "f",
        "in"
      ],
      [
        "l",
        "ab"
      ],
      [
        "in",
        "coming"
      ],
      [
        "an",
        "ing"
      ],
      [
        "de",
        "sc"
      ],
      [
        "is",
        "h"
      ],
      [
        "me",
        "aning"
      ],
      [
        "wi",
        "ll"
      ],
      [
        "end",
        "ant"
      ],
      [
        "be",
        "come"
      ],
      [
        "ele",
        "d"
      ],
      [
        "out",
        "go"
      ],
      [
        "proces",
        "sed"
      ],
      [
        "dep",
        "end"
      ],
      [
        "cycle",
        "s"
      ],
      [
        "implement",
        "ations"
      ],
      [
        "buil",
        "d"
      ],
      [
        "prevent",
        "ed"
      ],
      [
        "ide",
        "a"
      ],
      [
        "prereq",
        "s"
      ],
      [
        "dete",
        "ct"
      ],
      [
        "tell",
        "s"
      ],
      [
        "schedu",
        "le"
      ],
      [
        "gener",
        "ally"
      ],
      [
        "fin",
        "ish"
      ],
      [
        "lab",
        "eled"
      ],
      [
        "desc",
        "endant"
      ],
      [
        "outgo",
        "ing"
      ],
      [
        "descendant",
        "s"
      ],
      [
        "b",
        "read"
      ],
      [
        "c",
        "ross"
      ],
      [
        "tr",
        "ick"
      ],
      [
        "get",
        "s"
      ],
      [
        "group",
        "ing"
      ],
      [
        "initi",
        "al"
      ],
      [
        "bread",
        "th"
      ],
      [
        "(",
        "<"
      ],
      [
        "1",
        "40"
      ],
      [
        "2",
        "60"
      ],
      [
        "5",
        "8"
      ],
      [
        "5",
        "ms"
      ],
      [
        "6",
        "58"
      ],
      [
        "_",
        "request"
      ],
      [
        "_",
        "in_"
      ],
      [
        "b",
        "ri"
      ],
      [
        "c",
        "ent"
      ],
      [
        "d",
        "an"
      ],
      [
        "d",
        "ur"
      ],
      [
        "e",
        "f"
      ],
      [
        "f",
        "al"
      ],
      [
        "f",
        "ri"
      ],
      [
        "g",
        "ate"
      ],
      [
        "i",
        "od"
      ],
      [
        "m",
        "en"
      ],
      [
        "o",
        "th"
      ],
      [
        "p",
        "end"
      ],
      [
        "r",
        "fc"
      ],
      [
        "r",
        "alized"
      ],
      [
        "s",
        "mo"
      ],
      [
        "in",
        "st"
      ],
      [
        "in",
        "el"
      ],
      [
        "in",
        "stances"
      ],
      [
        "re",
        "set"
      ],
      [
        "re",
        "com"
      ],
      [
        "en",
        "for"
      ],
      [
        "ar",
        "ily"
      ],
      [
        "ro",
        "l"
      ],
      [
        "ent",
        "ly"
      ],
      [
        "end",
        "ly"
      ],
      [
        "ate",
        "gi"
      ],
      [
        "ma",
        "th"
      ],
      [
        "str",
        "ategi"
      ],
      [
        "count",
        "ing"
      ],
      [
        "window",
        "s"
      ],
      [
        "window",
        "_size"
      ],
      [
        "per",
        "iod"
      ],
      [
        "prev",
        "_window"
      ],
      [
        "un",
        "boun"
      ],
      [
        "head",
        "ers"
      ],
      [
        "ger",
        "ous"
      ],
      [
        "inde",
        "pend"
      ],
      [
        "server",
        "s"
      ],
      [
        "allow",
        "_request"
      ],
      [
        "sent",
        "inel"
      ],
      [
        "cont",
        "rol"
      ],
      [
        "20",
        "0"
      ],
      [
        "refill",
        "s"
      ],
      [
        "token",
        "bucket"
      ],
      [
        "exp",
        "ire"
      ],
      [
        "over",
        "head"
      ],
      [
        "over",
        "age"
      ],
      [
        "elapsed",
        "_in_"
      ],
      [
        "second",
        "s"
      ],
      [
        "prefer",
        "able"
      ],
      [
        "24",
        "7"
      ],
      [
        "burst",
        "ing"
      ],
      [
        "algorith",
        "ms"
      ],
      [
        "flo",
        "or"
      ],
      [
        "tal",
        "king"
      ],
      [
        "exec",
        "ute"
      ],
      [
        "inc",
        "r"
      ],
      [
        "atomic",
        "ally"
      ],
      [
        "1609459",
        "140"
      ],
      [
        "1609459",
        "260"
      ],
      [
        "1609459",
        "200"
      ],
      [
        "42",
        "9"
      ],
      [
        "tempor",
        "arily"
      ],
      [
        "reject",
        "ing"
      ],
      [
        "reject",
        "ed"
      ],
      [
        "approxim",
        "ation"
      ],
      [
        "approxim",
        "ates"
      ],
      [
        "current_window",
        "_count"
      ],
      [
        "consist",
        "ent"
      ],
      [
        "consist",
        "ency"
      ],
      [
        "boo",
        "l"
      ],
      [
        "658",
        "5"
      ],
      [
        "bri",
        "ef"
      ],
      [
        "cent",
        "ralized"
      ],
      [
        "dan",
        "gerous"
      ],
      [
        "dur",
        "ing"
      ],
      [
        "fal",
        "se"
      ],
      [
        "fri",
        "endly"
      ],
      [
        "gate",
        "way"
      ],
      [
        "men",
        "ded"
      ],
      [
        "oth",
        "ly"
      ],
      [
        "smo",
        "othly"
      ],
      [
        "inst",
        "ance"
      ],
      [
        "recom",
        "mended"
      ],
      [
        "enfor",
        "ces"
      ],
      [
        "strategi",
        "es"
      ],
      [
        "period",
        "ic"
      ],
      [
        "prev_window",
        "_count"
      ],
      [
        "unboun",
        "ded"
      ],
      [
        "independ",
        "ently"
      ],
      [
        "elapsed_in_",
        "current_window"
      ],
      [
        "\"",
        "?**"
      ],
      [
        "[",
        "-"
      ],
      [
        "`",
        "-"
      ],
      [
        "y",
        "et"
      ],
      [
        "ti",
        "al"
      ],
      [
        "su",
        "ch"
      ],
      [
        "pop",
        "ped"
      ],
      [
        "push",
        "ed"
      ],
      [
        "ha",
        "ven"
      ],
      [
        "maintain",
        "s"
      ],
      [
        "par",
        "tial"
      ],
      [
        "wait",
        "ing"
      ],
      [
        "who",
        "se"
      ],
      [
        "\"",
        "]"
      ],
      [
        "\"",
        "}"
      ],
      [
        "0",
        "8"
      ],
      [
        "1",
        "m"
      ],
      [
        "1",
        "z"
      ],
      [
        "1",
        "hr"
      ],
      [
        "2",
        "2"
      ],
      [
        "2",
        "h"
      ],
      [
        "5",
        "m"
      ],
      [
        "5",
        "s"
      ],
      [
        "_",
        "123"
      ],
      [
        "_",
        "alert"
      ],
      [
        "d",
        "k"
      ],
      [
        "d",
        "l"
      ],
      [
        "d",
        "mar"
      ],
      [
        "d",
        "au"
      ],
      [
        "j",
        "son"
      ],
      [
        "k",
        "ip"
      ],
      [
        "l",
        "er"
      ],
      [
        "m",
        "apping"
      ],
      [
        "n",
        "y"
      ],
      [
        "n",
        "ex"
      ],
      [
        "p",
        "es"
      ],
      [
        "p",
        "ay"
      ],
      [
        "p",
        "ull"
      ],
      [
        "r",
        "ou"
      ],
      [
        "r",
        "are"
      ],
      [
        "r",
        "ates"
      ],
      [
        "r",
        "acti"
      ],
      [
        "r",
        "_123"
      ],
      [
        "s",
        "ending"
      ],
      [
        "s",
        "kip"
      ],
      [
        "t",
        "wi"
      ],
      [
        "t",
        "ter"
      ],
      [
        "t",
        "_count"
      ],
      [
        "u",
        "u"
      ],
      [
        "{",
        "\""
      ],
      [
        "}",
        ","
      ],
      [
        "in",
        "ve"
      ],
      [
        "re",
        "gi"
      ],
      [
        "re",
        "start"
      ],
      [
        "on",
        "ential"
      ],
      [
        "on",
        "ents"
      ],
      [
        "at",
        "temp"
      ],
      [
        "at",
        "ures"
      ],
      [
        "en",
        "able"
      ],
      [
        "st",
        "ig"
      ],
      [
        "st",
        "ent"
      ],
      [
        "or",
        "dered"
      ],
      [
        "le",
        "an"
      ],
      [
        "le",
        "tter"
      ],
      [
        "the",
        "ir"
      ],
      [
        "ap",
        "ns"
      ],
      [
        "mp",
        "ot"
      ],
      [
        "mp",
        "ler"
      ],
      [
        "li",
        "o"
      ],
      [
        "ig",
        "ger"
      ],
      [
        "ig",
        "urable"
      ],
      [
        "pro",
        "mo"
      ],
      [
        "pro",
        "per"
      ],
      [
        "es",
        "p"
      ],
      [
        "us",
        "r_123"
      ],
      [
        "pre",
        "fs"
      ],
      [
        "ret",
        "ries"
      ],
      [
        "res",
        "our"
      ],
      [
        "str",
        "y"
      ],
      [
        "sp",
        "f"
      ],
      [
        "sp",
        "am"
      ],
      [
        "si",
        "stent"
      ],
      [
        "si",
        "mpler"
      ],
      [
        "am",
        "eric"
      ],
      [
        "tr",
        "igger"
      ],
      [
        "per",
        "sistent"
      ],
      [
        "order",
        "_id"
      ],
      [
        "ri",
        "de"
      ],
      [
        "imp",
        "racti"
      ],
      [
        "set",
        "s"
      ],
      [
        "fe",
        "atures"
      ],
      [
        "30",
        "m"
      ],
      [
        "notification",
        "_id"
      ],
      [
        "ty",
        "pes"
      ],
      [
        "tic",
        "ation"
      ],
      [
        "sent",
        "_at"
      ],
      [
        "in_",
        "app"
      ],
      [
        "hand",
        "le"
      ],
      [
        "then",
        "tication"
      ],
      [
        "exp",
        "onential"
      ],
      [
        "warm",
        "ing"
      ],
      [
        "comp",
        "onents"
      ],
      [
        "dispatch",
        "ing"
      ],
      [
        "over",
        "ride"
      ],
      [
        "maintain",
        "ing"
      ],
      [
        "...",
        "\""
      ],
      [
        "uni",
        "x"
      ],
      [
        "conne",
        "ction"
      ],
      [
        "support",
        "s"
      ],
      [
        "deliver",
        "ies"
      ],
      [
        "deliver",
        "ability"
      ],
      [
        "look",
        "up"
      ],
      [
        "topic",
        "s"
      ],
      [
        "45",
        "6"
      ],
      [
        "scal",
        "able"
      ],
      [
        "ev",
        "ents"
      ],
      [
        "au",
        "thentication"
      ],
      [
        "ide",
        "mpot"
      ],
      [
        "delay",
        "s"
      ],
      [
        "delay",
        "ed"
      ],
      [
        "invalid",
        "ate"
      ],
      [
        "trans",
        "action"
      ],
      [
        "mill",
        "ions"
      ],
      [
        "security",
        "_alert"
      ],
      [
        "fc",
        "m"
      ],
      [
        "boo",
        "lean"
      ],
      [
        "alert",
        "s"
      ],
      [
        "poll",
        "s"
      ],
      [
        "poll",
        "ing"
      ],
      [
        "notification_",
        "log"
      ],
      [
        "notification_",
        "preferences"
      ],
      [
        "delivered",
        "_at"
      ],
      [
        "schedul",
        "er"
      ],
      [
        "schedul",
        "ing"
      ],
      [
        "reference",
        "_id"
      ],
      [
        "stat",
        "us"
      ],
      [
        "partition",
        "ing"
      ],
      [
        "conf",
        "igurable"
      ],
      [
        "dk",
        "im"
      ],
      [
        "dl",
        "q"
      ],
      [
        "dmar",
        "c"
      ],
      [
        "json",
        "b"
      ],
      [
        "nex",
        "mo"
      ],
      [
        "pay",
        "load"
      ],
      [
        "rou",
        "te"
      ],
      [
        "rare",
        "ly"
      ],
      [
        "twi",
        "lio"
      ],
      [
        "uu",
        "id"
      ],
      [
        "inve",
        "stig"
      ],
      [
        "regi",
        "stry"
      ],
      [
        "restart",
        "s"
      ],
      [
        "attemp",
        "t_count"
      ],
      [
        "enable",
        "d"
      ],
      [
        "resour",
        "ces"
      ],
      [
        "americ",
        "a"
      ],
      [
        "impracti",
        "cal"
      ],
      [
        "idempot",
        "ency"
      ],
      [
        "transaction",
        "al"
      ],
      [
        "investig",
        "ation"
      ],
      [
        "b",
        "re"
      ],
      [
        "c",
        "ut"
      ],
      [
        "e",
        "asi"
      ],
      [
        "f",
        "low"
      ],
      [
        "g",
        "ant"
      ],
      [
        "i",
        "que"
      ],
      [
        "t",
        "es"
      ],
      [
        "re",
        "as"
      ],
      [
        "return",
        "ing"
      ],
      [
        "so",
        "lve"
      ],
      [
        "comple",
        "tes"
      ],
      [
        "tr",
        "ust"
      ],
      [
        "ele",
        "gant"
      ],
      [
        "sing",
        "ly"
      ],
      [
        "rever",
        "sal"
      ],
      [
        "iterative",
        "ly"
      ],
      [
        "recursive",
        "ly"
      ],
      [
        "techn",
        "ique"
      ],
      [
        "reverse",
        "s"
      ],
      [
        "over",
        "writ"
      ],
      [
        "over",
        "flow"
      ],
      [
        "reverselist_",
        "iterative"
      ],
      [
        "initi",
        "ally"
      ],
      [
        "bre",
        "ak"
      ],
      [
        "easi",
        "er"
      ],
      [
        "reas",
        "on"
      ],
      [
        "overwrit",
        "ing"
      ],
      [
        "a",
        "x"
      ],
      [
        "e",
        "i"
      ],
      [
        "e",
        "li"
      ],
      [
        "e",
        "ck"
      ],
      [
        "l",
        "in"
      ],
      [
        "s",
        "ate"
      ],
      [
        "t",
        "len"
      ],
      [
        "en",
        "sate"
      ],
      [
        "de",
        "st"
      ],
      [
        "pro",
        "of"
      ],
      [
        "wi",
        "dest"
      ],
      [
        "end",
        "s"
      ],
      [
        "ver",
        "tical"
      ],
      [
        "sh",
        "own"
      ],
      [
        "min",
        "ation"
      ],
      [
        "min",
        "ated"
      ],
      [
        "max",
        "imum"
      ],
      [
        "move",
        "s"
      ],
      [
        "do",
        "minated"
      ],
      [
        "wor",
        "se"
      ],
      [
        "comp",
        "ensate"
      ],
      [
        "incre",
        "ase"
      ],
      [
        "les",
        "s"
      ],
      [
        "bot",
        "tlen"
      ],
      [
        "stay",
        "s"
      ],
      [
        "mis",
        "ses"
      ],
      [
        "ax",
        "is"
      ],
      [
        "ei",
        "ther"
      ],
      [
        "eli",
        "mination"
      ],
      [
        "lin",
        "es"
      ],
      [
        "bottlen",
        "eck"
      ],
      [
        "1",
        "8"
      ],
      [
        "_",
        "dp"
      ],
      [
        "`",
        ")"
      ],
      [
        "f",
        "ar"
      ],
      [
        "i",
        "li"
      ],
      [
        "i",
        "ant"
      ],
      [
        "u",
        "ction"
      ],
      [
        "x",
        "ili"
      ],
      [
        "²",
        "),"
      ],
      [
        "in",
        "var"
      ],
      [
        "re",
        "constru"
      ],
      [
        "ro",
        "om"
      ],
      [
        "no",
        "te"
      ],
      [
        "ind",
        "uction"
      ],
      [
        "pa",
        "rent"
      ],
      [
        ")`",
        ":"
      ],
      [
        "lengthoflis",
        "_dp"
      ],
      [
        "au",
        "xili"
      ],
      [
        "pick",
        "ed"
      ],
      [
        "invar",
        "iant"
      ],
      [
        "reconstru",
        "ct"
      ],
      [
        "auxili",
        "ary"
      ],
      [
        "'",
        "):"
      ],
      [
        "'",
        "?**"
      ],
      [
        "(",
        "("
      ],
      [
        ")",
        "])"
      ],
      [
        ")",
        "]:"
      ],
      [
        ",",
        "-"
      ],
      [
        "2",
        "d"
      ],
      [
        "[",
        "("
      ],
      [
        "d",
        "ist"
      ],
      [
        "r",
        "oun"
      ],
      [
        "s",
        "ink"
      ],
      [
        "in",
        "ct"
      ],
      [
        "re",
        "visiting"
      ],
      [
        "for",
        "med"
      ],
      [
        "of",
        "ten"
      ],
      [
        "ver",
        "y"
      ],
      [
        "ver",
        "tic"
      ],
      [
        "pre",
        "serv"
      ],
      [
        "([",
        "("
      ],
      [
        "]=",
        "='"
      ],
      [
        "grid",
        "s"
      ],
      [
        "land",
        "s"
      ],
      [
        "wor",
        "st"
      ],
      [
        "adjac",
        "ent"
      ],
      [
        "bound",
        "s"
      ],
      [
        "sur",
        "roun"
      ],
      [
        "),(",
        "-"
      ],
      [
        "mat",
        "ters"
      ],
      [
        "modif",
        "ies"
      ],
      [
        "connect",
        "ing"
      ],
      [
        "connect",
        "ed"
      ],
      [
        "dist",
        "inct"
      ],
      [
        "vertic",
        "ally"
      ],
      [
        "preserv",
        "ing"
      ],
      [
        "surroun",
        "ded"
      ],
      [
        ")",
        "):"
      ],
      [
        "_",
        "iterative"
      ],
      [
        "`",
        "?**"
      ],
      [
        "d",
        "ou"
      ],
      [
        "m",
        "ask"
      ],
      [
        "p",
        "ow"
      ],
      [
        "in",
        "sp"
      ],
      [
        "in",
        "clude"
      ],
      [
        "co",
        "py"
      ],
      [
        "ex",
        "clude"
      ],
      [
        "cre",
        "ates"
      ],
      [
        "un",
        "do"
      ],
      [
        "[]",
        "]`."
      ],
      [
        "[:",
        "])"
      ],
      [
        "subsets",
        "_iterative"
      ],
      [
        "`[",
        "[]]`."
      ],
      [
        "prevent",
        "ing"
      ],
      [
        "[[]",
        "]"
      ],
      [
        "bit",
        "mask"
      ],
      [
        "ob",
        "ject"
      ],
      [
        "dou",
        "ble"
      ],
      [
        "pow",
        "er"
      ],
      [
        "insp",
        "ired"
      ],
      [
        "'",
        ")"
      ],
      [
        "'",
        ")]"
      ],
      [
        "3",
        "6"
      ],
      [
        "`",
        ")."
      ],
      [
        "d",
        "eno"
      ],
      [
        "k",
        "ind"
      ],
      [
        "m",
        "ing"
      ],
      [
        "in",
        "ite"
      ],
      [
        "pro",
        "gram"
      ],
      [
        "we",
        "st"
      ],
      [
        "am",
        "ic"
      ],
      [
        "min",
        "ations"
      ],
      [
        "can",
        "not"
      ],
      [
        "fe",
        "west"
      ],
      [
        "ut",
        "ing"
      ],
      [
        "`.",
        "\""
      ],
      [
        "comp",
        "uted"
      ],
      [
        "comp",
        "uting"
      ],
      [
        "...",
        ","
      ],
      [
        "inf",
        "inite"
      ],
      [
        "combin",
        "ation"
      ],
      [
        "dyn",
        "amic"
      ],
      [
        "deno",
        "minations"
      ],
      [
        "program",
        "ming"
      ],
      [
        "\"",
        "...\","
      ],
      [
        "(",
        "),"
      ],
      [
        "5",
        "t"
      ],
      [
        "6",
        "4"
      ],
      [
        "8",
        "0"
      ],
      [
        "9",
        "a"
      ],
      [
        "_",
        "al"
      ],
      [
        "_",
        "days"
      ],
      [
        "a",
        "mo"
      ],
      [
        "b",
        "lock"
      ],
      [
        "c",
        "ach"
      ],
      [
        "c",
        "lar"
      ],
      [
        "c",
        "dn"
      ],
      [
        "d",
        "5"
      ],
      [
        "f",
        "ree"
      ],
      [
        "h",
        "ou"
      ],
      [
        "h",
        "it"
      ],
      [
        "i",
        "as"
      ],
      [
        "l",
        "r"
      ],
      [
        "m",
        "iss"
      ],
      [
        "m",
        "d5"
      ],
      [
        "p",
        "lic"
      ],
      [
        "r",
        "ati"
      ],
      [
        "s",
        "w"
      ],
      [
        "z",
        "a"
      ],
      [
        "{",
        "..."
      ],
      [
        "}",
        "/"
      ],
      [
        "in",
        "ation"
      ],
      [
        "re",
        "hash"
      ],
      [
        "re",
        "plic"
      ],
      [
        "er",
        "y"
      ],
      [
        "en",
        "co"
      ],
      [
        "en",
        "ess"
      ],
      [
        "an",
        "um"
      ],
      [
        "an",
        "cer"
      ],
      [
        "se",
        "o"
      ],
      [
        "ac",
        "y"
      ],
      [
        "ac",
        "ent"
      ],
      [
        "al",
        "ph"
      ],
      [
        "de",
        "l"
      ],
      [
        "it",
        "ch"
      ],
      [
        "co",
        "ord"
      ],
      [
        "he",
        "av"
      ],
      [
        "ic",
        "tion"
      ],
      [
        "if",
        "ication"
      ],
      [
        "us",
        "s"
      ],
      [
        "sp",
        "of"
      ],
      [
        "ext",
        "ra"
      ],
      [
        "mo",
        "del"
      ],
      [
        "qu",
        "ery"
      ],
      [
        "qu",
        "eness"
      ],
      [
        "count",
        "ries"
      ],
      [
        "tr",
        "ill"
      ],
      [
        "ail",
        "ability"
      ],
      [
        "cre",
        "ations"
      ],
      [
        "cre",
        "ating"
      ],
      [
        "ser",
        "ies"
      ],
      [
        "ter",
        "ri"
      ],
      [
        "gre",
        "at"
      ],
      [
        "vi",
        "a"
      ],
      [
        "up",
        "time"
      ],
      [
        "10",
        "b"
      ],
      [
        "10",
        "42"
      ],
      [
        "lis",
        "h"
      ],
      [
        "visit",
        "s"
      ],
      [
        "hash",
        "ing"
      ],
      [
        "local",
        "ity"
      ],
      [
        "sy",
        "nchronously"
      ],
      [
        "bo",
        "dy"
      ],
      [
        "redirect",
        "ing"
      ],
      [
        "cache",
        "s"
      ],
      [
        "50",
        "ms"
      ],
      [
        "abc",
        "123"
      ],
      [
        "serv",
        "ices"
      ],
      [
        "gen",
        "erate"
      ],
      [
        "uni",
        "queness"
      ],
      [
        "high",
        "er"
      ],
      [
        "work",
        "er_id"
      ],
      [
        "code",
        "s"
      ],
      [
        "short_",
        "url"
      ],
      [
        "consum",
        "e"
      ],
      [
        "option",
        "ally"
      ],
      [
        "valid",
        "ate"
      ],
      [
        "monotonic",
        "ally"
      ],
      [
        "click",
        "s"
      ],
      [
        "click",
        "_count"
      ],
      [
        "click",
        "hou"
      ],
      [
        "asy",
        "nc"
      ],
      [
        "asy",
        "nchronously"
      ],
      [
        "accur",
        "acy"
      ],
      [
        "expiry",
        "_days"
      ],
      [
        "ev",
        "iction"
      ],
      [
        "dat",
        "acent"
      ],
      [
        "guarante",
        "e"
      ],
      [
        "horizon",
        "tal"
      ],
      [
        "shorten",
        "er"
      ],
      [
        "mat",
        "ter"
      ],
      [
        "popul",
        "ar"
      ],
      [
        "custom",
        "_al"
      ],
      [
        "pub",
        "lish"
      ],
      [
        "gener",
        "ation"
      ],
      [
        "stat",
        "s"
      ],
      [
        "combin",
        "ations"
      ],
      [
        "dyn",
        "amo"
      ],
      [
        "://",
        "...\","
      ],
      [
        "av",
        "ailability"
      ],
      [
        "bal",
        "ancer"
      ],
      [
        "glo",
        "bal"
      ],
      [
        "glo",
        "bally"
      ],
      [
        "expires",
        "_at"
      ],
      [
        "browser",
        "s"
      ],
      [
        "disc",
        "uss"
      ],
      [
        "cover",
        "s"
      ],
      [
        "cach",
        "ed"
      ],
      [
        "clar",
        "ification"
      ],
      [
        "lr",
        "u"
      ],
      [
        "rati",
        "o"
      ],
      [
        "sw",
        "itch"
      ],
      [
        "{...",
        "}"
      ],
      [
        "replic",
        "as"
      ],
      [
        "enco",
        "ding"
      ],
      [
        "anum",
        "eric"
      ],
      [
        "alph",
        "anumeric"
      ],
      [
        "coord",
        "ination"
      ],
      [
        "heav",
        "y"
      ],
      [
        "trill",
        "ion"
      ],
      [
        "terri",
        "ble"
      ],
      [
        "abc123",
        "4"
      ],
      [
        "clickhou",
        "se"
      ],
      [
        "datacent",
        "er_id"
      ],
      [
        "custom_al",
        "ias"
      ],
      [
        "dynamo",
        "db"
      ],
      [
        "`",
        "**"
      ],
      [
        "`",
        "),"
      ],
      [
        "b",
        "ca"
      ],
      [
        "c",
        "b"
      ],
      [
        "c",
        "r"
      ],
      [
        "c",
        "cur"
      ],
      [
        "c",
        "ab"
      ],
      [
        "e",
        "ared"
      ],
      [
        "o",
        "ccur"
      ],
      [
        "p",
        "w"
      ],
      [
        "p",
        "as"
      ],
      [
        "en",
        "counter"
      ],
      [
        "it",
        "ical"
      ],
      [
        "and",
        "s"
      ],
      [
        "app",
        "eared"
      ],
      [
        "sta",
        "le"
      ],
      [
        "back",
        "ward"
      ],
      [
        "ren",
        "ce"
      ],
      [
        "exp",
        "ands"
      ],
      [
        "(\"",
        "\")"
      ],
      [
        "pa",
        "st"
      ],
      [
        "cond",
        "ition"
      ],
      [
        "bb",
        "b"
      ],
      [
        "bb",
        "bbb"
      ],
      [
        "12",
        "8"
      ],
      [
        "lower",
        "case"
      ],
      [
        "should",
        "n"
      ],
      [
        "asc",
        "ii"
      ],
      [
        "shr",
        "ink"
      ],
      [
        "wke",
        "w"
      ],
      [
        "cr",
        "itical"
      ],
      [
        "occur",
        "rence"
      ],
      [
        "pw",
        "wkew"
      ],
      [
        "pas",
        "ses"
      ],
      [
        ")",
        "?**"
      ],
      [
        "_",
        "buckets"
      ],
      [
        "_",
        "common"
      ],
      [
        "h",
        "ig"
      ],
      [
        "m",
        "um"
      ],
      [
        "n",
        "ally"
      ],
      [
        "ar",
        "ding"
      ],
      [
        "the",
        "ore"
      ],
      [
        "ex",
        "ce"
      ],
      [
        "id",
        "enti"
      ],
      [
        "he",
        "st"
      ],
      [
        "he",
        "app"
      ],
      [
        "we",
        "ake"
      ],
      [
        "heap",
        "pop"
      ],
      [
        "most",
        "_common"
      ],
      [
        "opti",
        "mum"
      ],
      [
        "inter",
        "nally"
      ],
      [
        ")`",
        ":**"
      ],
      [
        "alternative",
        "ly"
      ],
      [
        "colle",
        "ct"
      ],
      [
        "significant",
        "ly"
      ],
      [
        "topkfrequent",
        "_buckets"
      ],
      [
        "candid",
        "ate"
      ],
      [
        "disc",
        "arding"
      ],
      [
        "fact",
        "or"
      ],
      [
        "hig",
        "hest"
      ],
      [
        "theore",
        "tical"
      ],
      [
        "exce",
        "ed"
      ],
      [
        "identi",
        "cal"
      ],
      [
        "heapp",
        "ush"
      ],
      [
        "weake",
        "st"
      ],
      [
        "_",
        "optimized"
      ],
      [
        "f",
        "u"
      ],
      [
        "g",
        "it"
      ],
      [
        "u",
        "tion"
      ],
      [
        "u",
        "ce"
      ],
      [
        "z",
        "y"
      ],
      [
        "z",
        "ation"
      ],
      [
        "z",
        "zy"
      ],
      [
        "en",
        "tion"
      ],
      [
        "le",
        "ven"
      ],
      [
        "int",
        "ention"
      ],
      [
        "te",
        "in"
      ],
      [
        "red",
        "uce"
      ],
      [
        "sh",
        "tein"
      ],
      [
        "sp",
        "el"
      ],
      [
        "requ",
        "ired"
      ],
      [
        "check",
        "ers"
      ],
      [
        "(\"",
        "\","
      ],
      [
        "mindistance",
        "_optimized"
      ],
      [
        "keep",
        "ing"
      ],
      [
        "exec",
        "ution"
      ],
      [
        "optimi",
        "zation"
      ],
      [
        "match",
        "ing"
      ],
      [
        "applic",
        "ations"
      ],
      [
        "dn",
        "a"
      ],
      [
        "diff",
        "er"
      ],
      [
        "fu",
        "zzy"
      ],
      [
        "leven",
        "shtein"
      ],
      [
        "spel",
        "l"
      ],
      [
        "\"",
        "."
      ],
      [
        "'",
        "])"
      ],
      [
        ")",
        ")`"
      ],
      [
        "a",
        "et"
      ],
      [
        "i",
        "j"
      ],
      [
        "k",
        "l"
      ],
      [
        "m",
        "no"
      ],
      [
        "p",
        "q"
      ],
      [
        "r",
        "stu"
      ],
      [
        "v",
        "w"
      ],
      [
        "x",
        "y"
      ],
      [
        "def",
        "gh"
      ],
      [
        "order",
        "s"
      ],
      [
        "([",
        "\"\""
      ],
      [
        "wr",
        "apping"
      ],
      [
        "hash",
        "able"
      ],
      [
        "produ",
        "ces"
      ],
      [
        "abc",
        "defgh"
      ],
      [
        "()",
        ")"
      ],
      [
        "()",
        "`"
      ],
      [
        "lar",
        "ger"
      ],
      [
        "tuple",
        "s"
      ],
      [
        "[[\"",
        "\"]]"
      ],
      [
        "stor",
        "age"
      ],
      [
        "))`",
        "?**"
      ],
      [
        "ij",
        "kl"
      ],
      [
        "mno",
        "pq"
      ],
      [
        "rstu",
        "vw"
      ],
      [
        "xy",
        "z"
      ],
      [
        "([\"\"",
        "])"
      ],
      [
        "abcdefgh",
        "ijkl"
      ],
      [
        "mnopq",
        "rstuvw"
      ],
      [
        "abcdefghijkl",
        "mnopqrstuvw"
      ],
      [
        "abcdefghijklmnopqrstuvw",
        "xyz"
      ],
      [
        "a",
        "greed"
      ],
      [
        "b",
        "ative"
      ],
      [
        "c",
        "ate"
      ],
      [
        "d",
        "as"
      ],
      [
        "d",
        "one"
      ],
      [
        "e",
        "as"
      ],
      [
        "e",
        "ven"
      ],
      [
        "g",
        "ut"
      ],
      [
        "h",
        "bo"
      ],
      [
        "i",
        "ated"
      ],
      [
        "i",
        "alized"
      ],
      [
        "m",
        "ater"
      ],
      [
        "n",
        "ing"
      ],
      [
        "p",
        "are"
      ],
      [
        "s",
        "ation"
      ],
      [
        "s",
        "il"
      ],
      [
        "s",
        "ay"
      ],
      [
        "s",
        "la"
      ],
      [
        "t",
        "ask"
      ],
      [
        "u",
        "ine"
      ],
      [
        "w",
        "in"
      ],
      [
        "y",
        "le"
      ],
      [
        "in",
        "ion"
      ],
      [
        "in",
        "ability"
      ],
      [
        "re",
        "visit"
      ],
      [
        "th",
        "s"
      ],
      [
        "th",
        "or"
      ],
      [
        "th",
        "ority"
      ],
      [
        "st",
        "ar"
      ],
      [
        "st",
        "yle"
      ],
      [
        "le",
        "ad"
      ],
      [
        "ing",
        "est"
      ],
      [
        "ti",
        "gh"
      ],
      [
        "ur",
        "ity"
      ],
      [
        "ro",
        "les"
      ],
      [
        "ap",
        "prec"
      ],
      [
        "um",
        "ent"
      ],
      [
        "to",
        "ok"
      ],
      [
        "co",
        "st"
      ],
      [
        "co",
        "mes"
      ],
      [
        "li",
        "ct"
      ],
      [
        "ex",
        "pl"
      ],
      [
        "ex",
        "pres"
      ],
      [
        "id",
        "ence"
      ],
      [
        "me",
        "as"
      ],
      [
        "pro",
        "mi"
      ],
      [
        "ad",
        "vo"
      ],
      [
        "ver",
        "bally"
      ],
      [
        "pre",
        "dict"
      ],
      [
        "pre",
        "pare"
      ],
      [
        "ack",
        "now"
      ],
      [
        "sp",
        "ent"
      ],
      [
        "def",
        "er"
      ],
      [
        "qu",
        "ick"
      ],
      [
        "ne",
        "ar"
      ],
      [
        "be",
        "ing"
      ],
      [
        "imp",
        "act"
      ],
      [
        "el",
        "ing"
      ],
      [
        "out",
        "come"
      ],
      [
        "out",
        "comes"
      ],
      [
        "ain",
        "ing"
      ],
      [
        "dis",
        "mis"
      ],
      [
        "fe",
        "eling"
      ],
      [
        "op",
        "inion"
      ],
      [
        "read",
        "s"
      ],
      [
        "sa",
        "id"
      ],
      [
        "cont",
        "ext"
      ],
      [
        "wor",
        "king"
      ],
      [
        "mig",
        "rate"
      ],
      [
        "produ",
        "ctively"
      ],
      [
        "migr",
        "ated"
      ],
      [
        "mon",
        "ths"
      ],
      [
        "hour",
        "ly"
      ],
      [
        "your",
        "s"
      ],
      [
        "gen",
        "uine"
      ],
      [
        "manager",
        "s"
      ],
      [
        "respon",
        "sible"
      ],
      [
        "ra",
        "structure"
      ],
      [
        "present",
        "ed"
      ],
      [
        "led",
        "ged"
      ],
      [
        "com",
        "bative"
      ],
      [
        "cho",
        "se"
      ],
      [
        "support",
        "ed"
      ],
      [
        "conver",
        "sation"
      ],
      [
        "batch",
        "es"
      ],
      [
        "run",
        "ning"
      ],
      [
        "ca",
        "res"
      ],
      [
        "found",
        "ation"
      ],
      [
        "fr",
        "aming"
      ],
      [
        "position",
        "s"
      ],
      [
        "stre",
        "am"
      ],
      [
        "down",
        "stream"
      ],
      [
        "arg",
        "ument"
      ],
      [
        "ev",
        "idence"
      ],
      [
        "writ",
        "ten"
      ],
      [
        "je",
        "ction"
      ],
      [
        "au",
        "thority"
      ],
      [
        "constru",
        "ctively"
      ],
      [
        "inf",
        "rastructure"
      ],
      [
        "see",
        "king"
      ],
      [
        "behavior",
        "al"
      ],
      [
        "mat",
        "urity"
      ],
      [
        "think",
        "ing"
      ],
      [
        "operation",
        "al"
      ],
      [
        "profession",
        "ally"
      ],
      [
        "try",
        "ing"
      ],
      [
        "document",
        "ing"
      ],
      [
        "document",
        "ed"
      ],
      [
        "quar",
        "ter"
      ],
      [
        "complete",
        "ly"
      ],
      [
        "dead",
        "line"
      ],
      [
        "conf",
        "lict"
      ],
      [
        "ob",
        "jection"
      ],
      [
        "though",
        "t"
      ],
      [
        "escal",
        "ate"
      ],
      [
        "escal",
        "ating"
      ],
      [
        "reso",
        "lution"
      ],
      [
        "reso",
        "lve"
      ],
      [
        "respect",
        "ed"
      ],
      [
        "das",
        "hbo"
      ],
      [
        "eas",
        "ily"
      ],
      [
        "mater",
        "ialized"
      ],
      [
        "sil",
        "ent"
      ],
      [
        "say",
        "ing"
      ],
      [
        "thor",
        "ough"
      ],
      [
        "lead",
        "ership"
      ],
      [
        "ingest",
        "ion"
      ],
      [
        "tigh",
        "t"
      ],
      [
        "apprec",
        "iated"
      ],
      [
        "expl",
        "aining"
      ],
      [
        "expres",
        "sed"
      ],
      [
        "meas",
        "urable"
      ],
      [
        "promi",
        "sed"
      ],
      [
        "advo",
        "cate"
      ],
      [
        "predict",
        "ed"
      ],
      [
        "acknow",
        "ledged"
      ],
      [
        "dismis",
        "sive"
      ],
      [
        "dashbo",
        "ard"
      ]
    ]
  }
}